{
  "version": "1.0",
  "truncation": null,
  "padding": null,
  "added_tokens": [
    {
      "id": 0,
      "special": true,
      "content": "<s>",
      "single_word": false,
      "lstrip": false,
      "rstrip": false,
      "normalized": false
    },
    {
      "id": 1,
      "special": true,
      "content": "<pad>",
      "single_word": false,
      "lstrip": false,
      "rstrip": false,
      "normalized": false
    },
    {
      "id": 2,
      "special": true,
      "content": "</s>",
      "single_word": false,
      "lstrip": false,
      "rstrip": false,
      "normalized": false
    },
    {
      "id": 3,
      "special": true,
      "content": "<unk>",
      "single_word": false,
      "lstrip": false,
      "rstrip": false,
      "normalized": false
    },
    {
      "id": 4,
      "special": true,
      "content": "<length>",
      "single_word": false,
      "lstrip": false,
      "rstrip": false,
      "normalized": false
    },
    {
      "id": 5,
      "special": true,
      "content": "<mask>",
      "single_word": false,
      "lstrip": false,
      "rstrip": false,
      "normalized": false
    },
    {
      "id": 32000,
      "special": true,
      "content": "ar_AR",
      "single_word": false,
      "lstrip": false,
      "rstrip": false,
      "normalized": false
    },
    {
      "id": 32001,
      "special": true,
      "content": "cs_CZ",
      "single_word": false,
      "lstrip": false,
      "rstrip": false,
      "normalized": false
    },
    {
      "id": 32002,
      "special": true,
      "content": "de_DE",
      "single_word": false,
      "lstrip": false,
      "rstrip": false,
      "normalized": false
    },
    {
      "id": 32003,
      "special": true,
      "content": "en_XX",
      "single_word": false,
      "lstrip": false,
      "rstrip": false,
      "normalized": false
    },
    {
      "id": 32004,
      "special": true,
      "content": "es_XX",
      "single_word": false,
      "lstrip": false,
      "rstrip": false,
      "normalized": false
    },
    {
      "id": 32005,
      "special": true,
      "content": "et_EE",
      "single_word": false,
      "lstrip": false,
      "rstrip": false,
      "normalized": false
    },
    {
      "id": 32006,
      "special": true,
      "content": "fi_FI",
      "single_word": false,
      "lstrip": false,
      "rstrip": false,
      "normalized": false
    },
    {
      "id": 32007,
      "special": true,
      "content": "fr_XX",
      "single_word": false,
      "lstrip": false,
      "rstrip": false,
      "normalized": false
    },
    {
      "id": 32008,
      "special": true,
      "content": "gu_IN",
      "single_word": false,
      "lstrip": false,
      "rstrip": false,
      "normalized": false
    },
    {
      "id": 32009,
      "special": true,
      "content": "hi_IN",
      "single_word": false,
      "lstrip": false,
      "rstrip": false,
      "normalized": false
    },
    {
      "id": 32010,
      "special": true,
      "content": "it_IT",
      "single_word": false,
      "lstrip": false,
      "rstrip": false,
      "normalized": false
    },
    {
      "id": 32011,
      "special": true,
      "content": "ja_XX",
      "single_word": false,
      "lstrip": false,
      "rstrip": false,
      "normalized": false
    },
    {
      "id": 32012,
      "special": true,
      "content": "kk_KZ",
      "single_word": false,
      "lstrip": false,
      "rstrip": false,
      "normalized": false
    },
    {
      "id": 32013,
      "special": true,
      "content": "ko_KR",
      "single_word": false,
      "lstrip": false,
      "rstrip": false,
      "normalized": false
    },
    {
      "id": 32014,
      "special": true,
      "content": "lt_LT",
      "single_word": false,
      "lstrip": false,
      "rstrip": false,
      "normalized": false
    },
    {
      "id": 32015,
      "special": true,
      "content": "lv_LV",
      "single_word": false,
      "lstrip": false,
      "rstrip": false,
      "normalized": false
    },
    {
      "id": 32016,
      "special": true,
      "content": "my_MM",
      "single_word": false,
      "lstrip": false,
      "rstrip": false,
      "normalized": false
    },
    {
      "id": 32017,
      "special": true,
      "content": "ne_NP",
      "single_word": false,
      "lstrip": false,
      "rstrip": false,
      "normalized": false
    },
    {
      "id": 32018,
      "special": true,
      "content": "nl_XX",
      "single_word": false,
      "lstrip": false,
      "rstrip": false,
      "normalized": false
    },
    {
      "id": 32019,
      "special": true,
      "content": "ro_RO",
      "single_word": false,
      "lstrip": false,
      "rstrip": false,
      "normalized": false
    },
    {
      "id": 32020,
      "special": true,
      "content": "ru_RU",
      "single_word": false,
      "lstrip": false,
      "rstrip": false,
      "normalized": false
    },
    {
      "id": 32021,
      "special": true,
      "content": "si_LK",
      "single_word": false,
      "lstrip": false,
      "rstrip": false,
      "normalized": false
    },
    {
      "id": 32022,
      "special": true,
      "content": "tr_TR",
      "single_word": false,
      "lstrip": false,
      "rstrip": false,
      "normalized": false
    },
    {
      "id": 32023,
      "special": true,
      "content": "vi_VN",
      "single_word": false,
      "lstrip": false,
      "rstrip": false,
      "normalized": false
    },
    {
      "id": 32024,
      "special": true,
      "content": "zh_CN",
      "single_word": false,
      "lstrip": false,
      "rstrip": false,
      "normalized": false
    }
  ],
  "normalizer": {
    "type": "NFKC"
  },
  "pre_tokenizer": {
    "type": "Metaspace",
    "replacement": "▁",
    "add_prefix_space": true
  },
  "post_processor": {
    "type": "TemplateProcessing",
    "single": [
      {
        "Sequence": {
          "id": "A",
          "type_id": 0
        }
      },
      {
        "SpecialToken": {
          "id": "</s>",
          "type_id": 0
        }
      },
      {
        "SpecialToken": {
          "id": "en_XX",
          "type_id": 0
        }
      }
    ],
    "pair": [
      {
        "Sequence": {
          "id": "A",
          "type_id": 0
        }
      },
      {
        "Sequence": {
          "id": "B",
          "type_id": 0
        }
      },
      {
        "SpecialToken": {
          "id": "</s>",
          "type_id": 0
        }
      },
      {
        "SpecialToken": {
          "id": "en_XX",
          "type_id": 0
        }
      }
    ],
    "special_tokens": {
      "</s>": {
        "id": "</s>",
        "ids": [
          2
        ],
        "tokens": [
          "</s>"
        ]
      },
      "en_XX": {
        "id": "en_XX",
        "ids": [
          32003
        ],
        "tokens": [
          "en_XX"
        ]
      }
    }
  },
  "decoder": {
    "type": "Metaspace",
    "replacement": "▁",
    "add_prefix_space": true
  },
  "model": {
    "type": "BPE",
    "dropout": null,
    "unk_token": null,
    "continuing_subword_prefix": null,
    "end_of_word_suffix": null,
    "fuse_unk": false,
    "vocab": {
      "<s>": 0,
      "<pad>": 1,
      "</s>": 2,
      "<unk>": 3,
      "<length>": 4,
      "<mask>": 5,
      "\u0000": 6,
      "\u0001": 7,
      "\u0002": 8,
      "\u0003": 9,
      "\u0006": 10,
      "\u0007": 11,
      "\b": 12,
      "\n": 13,
      "\u000b": 14,
      "\f": 15,
      "\u0010": 16,
      "\u0011": 17,
      "\u0012": 18,
      "\u0013": 19,
      "\u0014": 20,
      "\u0015": 21,
      "\u0018": 22,
      "\u0019": 23,
      "\u001a": 24,
      "\u001c": 25,
      "\u001d": 26,
      "\u001e": 27,
      "\u001f": 28,
      "!": 29,
      "\"": 30,
      "#": 31,
      "$": 32,
      "%": 33,
      "&": 34,
      "'": 35,
      "(": 36,
      ")": 37,
      "*": 38,
      "+": 39,
      ",": 40,
      "-": 41,
      ".": 42,
      "/": 43,
      "0": 44,
      "1": 45,
      "2": 46,
      "3": 47,
      "4": 48,
      "5": 49,
      "6": 50,
      "7": 51,
      "8": 52,
      "9": 53,
      ":": 54,
      ";": 55,
      "<": 56,
      "=": 57,
      ">": 58,
      "?": 59,
      "@": 60,
      "A": 61,
      "B": 62,
      "C": 63,
      "D": 64,
      "E": 65,
      "F": 66,
      "G": 67,
      "H": 68,
      "I": 69,
      "J": 70,
      "K": 71,
      "L": 72,
      "M": 73,
      "N": 74,
      "O": 75,
      "P": 76,
      "Q": 77,
      "R": 78,
      "S": 79,
      "T": 80,
      "U": 81,
      "V": 82,
      "W": 83,
      "X": 84,
      "Y": 85,
      "Z": 86,
      "[": 87,
      "\\": 88,
      "]": 89,
      "^": 90,
      "_": 91,
      "`": 92,
      "a": 93,
      "b": 94,
      "c": 95,
      "d": 96,
      "e": 97,
      "f": 98,
      "g": 99,
      "h": 100,
      "i": 101,
      "j": 102,
      "k": 103,
      "l": 104,
      "m": 105,
      "n": 106,
      "o": 107,
      "p": 108,
      "q": 109,
      "r": 110,
      "s": 111,
      "t": 112,
      "u": 113,
      "v": 114,
      "w": 115,
      "x": 116,
      "y": 117,
      "z": 118,
      "{": 119,
      "}": 120,
      "~": 121,
      "": 122,
      "": 123,
      "": 124,
      "": 125,
      "": 126,
      "": 127,
      "": 128,
      "": 129,
      "": 130,
      "": 131,
      "": 132,
      "": 133,
      "": 134,
      "": 135,
      "": 136,
      "": 137,
      "": 138,
      "": 139,
      "": 140,
      "": 141,
      "": 142,
      "": 143,
      "": 144,
      "¡": 145,
      "¢": 146,
      "£": 147,
      "¤": 148,
      "¥": 149,
      "¦": 150,
      "§": 151,
      "©": 152,
      "«": 153,
      "¬": 154,
      "­": 155,
      "®": 156,
      "°": 157,
      "±": 158,
      "¶": 159,
      "·": 160,
      "»": 161,
      "¿": 162,
      "À": 163,
      "Á": 164,
      "Â": 165,
      "Ã": 166,
      "Ä": 167,
      "Å": 168,
      "Æ": 169,
      "Ç": 170,
      "È": 171,
      "É": 172,
      "Ê": 173,
      "Ë": 174,
      "Ì": 175,
      "Í": 176,
      "Î": 177,
      "Ï": 178,
      "Ñ": 179,
      "Ò": 180,
      "Ó": 181,
      "Ô": 182,
      "Õ": 183,
      "Ö": 184,
      "×": 185,
      "Ø": 186,
      "Ù": 187,
      "Ú": 188,
      "Û": 189,
      "Ü": 190,
      "Þ": 191,
      "ß": 192,
      "à": 193,
      "á": 194,
      "â": 195,
      "ã": 196,
      "ä": 197,
      "å": 198,
      "æ": 199,
      "ç": 200,
      "è": 201,
      "é": 202,
      "ê": 203,
      "ë": 204,
      "ì": 205,
      "í": 206,
      "î": 207,
      "ï": 208,
      "ð": 209,
      "ñ": 210,
      "ò": 211,
      "ó": 212,
      "ô": 213,
      "õ": 214,
      "ö": 215,
      "÷": 216,
      "ø": 217,
      "ù": 218,
      "ú": 219,
      "û": 220,
      "ü": 221,
      "ý": 222,
      "þ": 223,
      "ÿ": 224,
      "Ā": 225,
      "ā": 226,
      "Ă": 227,
      "ă": 228,
      "ą": 229,
      "ć": 230,
      "Č": 231,
      "č": 232,
      "ď": 233,
      "Đ": 234,
      "đ": 235,
      "ē": 236,
      "ė": 237,
      "ę": 238,
      "ě": 239,
      "Ğ": 240,
      "ğ": 241,
      "ī": 242,
      "İ": 243,
      "ı": 244,
      "Ł": 245,
      "ł": 246,
      "ń": 247,
      "ň": 248,
      "Ō": 249,
      "ō": 250,
      "ő": 251,
      "Œ": 252,
      "œ": 253,
      "ŕ": 254,
      "ř": 255,
      "Ś": 256,
      "ś": 257,
      "Ş": 258,
      "ş": 259,
      "Š": 260,
      "š": 261,
      "ţ": 262,
      "ū": 263,
      "ů": 264,
      "ű": 265,
      "Ÿ": 266,
      "ź": 267,
      "Ż": 268,
      "ż": 269,
      "Ž": 270,
      "ž": 271,
      "ƒ": 272,
      "ơ": 273,
      "ư": 274,
      "ǎ": 275,
      "ș": 276,
      "ț": 277,
      "ȟ": 278,
      "ɑ": 279,
      "ɔ": 280,
      "ə": 281,
      "ɛ": 282,
      "ɪ": 283,
      "ʊ": 284,
      "ʻ": 285,
      "ʼ": 286,
      "ʿ": 287,
      "ˇ": 288,
      "ˈ": 289,
      "ː": 290,
      "́": 291,
      "̃": 292,
      "̄": 293,
      "̈": 294,
      "̊": 295,
      "̋": 296,
      "̧": 297,
      "̶": 298,
      "͜": 299,
      "͡": 300,
      "ͽ": 301,
      "Α": 302,
      "Γ": 303,
      "Δ": 304,
      "Ι": 305,
      "Λ": 306,
      "Μ": 307,
      "Π": 308,
      "Σ": 309,
      "Τ": 310,
      "Φ": 311,
      "Ω": 312,
      "ά": 313,
      "έ": 314,
      "ή": 315,
      "ί": 316,
      "α": 317,
      "β": 318,
      "γ": 319,
      "δ": 320,
      "ε": 321,
      "η": 322,
      "θ": 323,
      "ι": 324,
      "κ": 325,
      "λ": 326,
      "μ": 327,
      "ν": 328,
      "ο": 329,
      "π": 330,
      "ρ": 331,
      "ς": 332,
      "σ": 333,
      "τ": 334,
      "υ": 335,
      "φ": 336,
      "χ": 337,
      "ψ": 338,
      "ω": 339,
      "ό": 340,
      "ύ": 341,
      "ϟ": 342,
      "Ђ": 343,
      "Ѕ": 344,
      "А": 345,
      "Б": 346,
      "В": 347,
      "Г": 348,
      "Д": 349,
      "И": 350,
      "К": 351,
      "М": 352,
      "Н": 353,
      "О": 354,
      "П": 355,
      "Р": 356,
      "С": 357,
      "Т": 358,
      "У": 359,
      "а": 360,
      "б": 361,
      "в": 362,
      "г": 363,
      "д": 364,
      "е": 365,
      "ж": 366,
      "з": 367,
      "и": 368,
      "й": 369,
      "к": 370,
      "л": 371,
      "м": 372,
      "н": 373,
      "о": 374,
      "п": 375,
      "р": 376,
      "с": 377,
      "т": 378,
      "у": 379,
      "ф": 380,
      "х": 381,
      "ц": 382,
      "ч": 383,
      "ш": 384,
      "щ": 385,
      "ы": 386,
      "ь": 387,
      "ю": 388,
      "я": 389,
      "ѕ": 390,
      "і": 391,
      "ї": 392,
      "ј": 393,
      "њ": 394,
      "ќ": 395,
      "ў": 396,
      "א": 397,
      "ד": 398,
      "ה": 399,
      "ו": 400,
      "י": 401,
      "ל": 402,
      "מ": 403,
      "נ": 404,
      "ר": 405,
      "ש": 406,
      "ת": 407,
      "آ": 408,
      "ا": 409,
      "ب": 410,
      "ة": 411,
      "ت": 412,
      "ج": 413,
      "ح": 414,
      "د": 415,
      "ر": 416,
      "ز": 417,
      "س": 418,
      "ص": 419,
      "ع": 420,
      "ف": 421,
      "ق": 422,
      "ك": 423,
      "ل": 424,
      "م": 425,
      "ن": 426,
      "ه": 427,
      "و": 428,
      "ى": 429,
      "ي": 430,
      "پ": 431,
      "ی": 432,
      "ं": 433,
      "आ": 434,
      "क": 435,
      "न": 436,
      "प": 437,
      "य": 438,
      "र": 439,
      "ल": 440,
      "ा": 441,
      "ि": 442,
      "े": 443,
      "्": 444,
      "আ": 445,
      "ন": 446,
      "প": 447,
      "ব": 448,
      "র": 449,
      "া": 450,
      "ি": 451,
      "্": 452,
      "ก": 453,
      "ค": 454,
      "ง": 455,
      "ด": 456,
      "ท": 457,
      "น": 458,
      "พ": 459,
      "ม": 460,
      "ย": 461,
      "ร": 462,
      "ล": 463,
      "ว": 464,
      "ห": 465,
      "อ": 466,
      "ั": 467,
      "า": 468,
      "ิ": 469,
      "ี": 470,
      "เ": 471,
      "็": 472,
      "่": 473,
      "้": 474,
      "๑": 475,
      "ღ": 476,
      "Ḥ": 477,
      "ḥ": 478,
      "ṇ": 479,
      "ṣ": 480,
      "ṭ": 481,
      "ẞ": 482,
      "ạ": 483,
      "ế": 484,
      "ễ": 485,
      "ệ": 486,
      "ị": 487,
      "ọ": 488,
      "ộ": 489,
      "​": 490,
      "‌": 491,
      "‍": 492,
      "‎": 493,
      "‏": 494,
      "‐": 495,
      "‒": 496,
      "–": 497,
      "—": 498,
      "―": 499,
      "‖": 500,
      "‘": 501,
      "’": 502,
      "‚": 503,
      "‛": 504,
      "“": 505,
      "”": 506,
      "„": 507,
      "‟": 508,
      "†": 509,
      "‡": 510,
      "•": 511,
      "‣": 512,
      " ": 513,
      " ": 514,
      "‪": 515,
      "‬": 516,
      "‭": 517,
      "‰": 518,
      "′": 519,
      "‹": 520,
      "›": 521,
      "※": 522,
      "⁄": 523,
      "⁠": 524,
      "₩": 525,
      "₪": 526,
      "€": 527,
      "₹": 528,
      "⃣": 529,
      "←": 530,
      "↑": 531,
      "→": 532,
      "↓": 533,
      "↔": 534,
      "↗": 535,
      "↝": 536,
      "↩": 537,
      "↪": 538,
      "↳": 539,
      "↵": 540,
      "⇒": 541,
      "⇓": 542,
      "⇔": 543,
      "⇨": 544,
      "∂": 545,
      "∆": 546,
      "−": 547,
      "∗": 548,
      "∙": 549,
      "√": 550,
      "∞": 551,
      "∴": 552,
      "∼": 553,
      "≈": 554,
      "≠": 555,
      "≤": 556,
      "≥": 557,
      "⊙": 558,
      "⋅": 559,
      "⌘": 560,
      "⎯": 561,
      "⏰": 562,
      "⏳": 563,
      "─": 564,
      "━": 565,
      "│": 566,
      "═": 567,
      "║": 568,
      "▁": 569,
      "█": 570,
      "▌": 571,
      "▒": 572,
      "▓": 573,
      "■": 574,
      "□": 575,
      "▧": 576,
      "▪": 577,
      "▫": 578,
      "▬": 579,
      "▲": 580,
      "△": 581,
      "▶": 582,
      "▷": 583,
      "▸": 584,
      "►": 585,
      "▻": 586,
      "▼": 587,
      "◄": 588,
      "◆": 589,
      "◇": 590,
      "◈": 591,
      "◊": 592,
      "○": 593,
      "◎": 594,
      "●": 595,
      "◗": 596,
      "◘": 597,
      "◙": 598,
      "◦": 599,
      "◯": 600,
      "◼": 601,
      "◾": 602,
      "☀": 603,
      "☃": 604,
      "★": 605,
      "☆": 606,
      "☎": 607,
      "☐": 608,
      "☑": 609,
      "☕": 610,
      "☘": 611,
      "☛": 612,
      "☝": 613,
      "☞": 614,
      "☠": 615,
      "☩": 616,
      "☰": 617,
      "☹": 618,
      "☺": 619,
      "☻": 620,
      "☼": 621,
      "☾": 622,
      "♀": 623,
      "♂": 624,
      "♔": 625,
      "♕": 626,
      "♛": 627,
      "♠": 628,
      "♡": 629,
      "♣": 630,
      "♥": 631,
      "♦": 632,
      "♪": 633,
      "♫": 634,
      "♬": 635,
      "⚓": 636,
      "⚠": 637,
      "⚡": 638,
      "⚭": 639,
      "⚽": 640,
      "⛄": 641,
      "✅": 642,
      "✈": 643,
      "✉": 644,
      "✊": 645,
      "✌": 646,
      "✍": 647,
      "✎": 648,
      "✏": 649,
      "✓": 650,
      "✔": 651,
      "✖": 652,
      "✗": 653,
      "✘": 654,
      "✤": 655,
      "✦": 656,
      "✨": 657,
      "✩": 658,
      "✪": 659,
      "✭": 660,
      "✯": 661,
      "✰": 662,
      "✱": 663,
      "✶": 664,
      "✷": 665,
      "✽": 666,
      "✿": 667,
      "❀": 668,
      "❄": 669,
      "❌": 670,
      "❏": 671,
      "❑": 672,
      "❓": 673,
      "❖": 674,
      "❗": 675,
      "❚": 676,
      "❝": 677,
      "❞": 678,
      "❟": 679,
      "❣": 680,
      "❤": 681,
      "❥": 682,
      "❧": 683,
      "❶": 684,
      "➔": 685,
      "➖": 686,
      "➜": 687,
      "➞": 688,
      "➡": 689,
      "➢": 690,
      "➤": 691,
      "➨": 692,
      "➳": 693,
      "⟵": 694,
      "⟶": 695,
      "⠀": 696,
      "⤷": 697,
      "⦁": 698,
      "⨂": 699,
      "⬇": 700,
      "⭐": 701,
      "。": 702,
      "〈": 703,
      "《": 704,
      "》": 705,
      "「": 706,
      "」": 707,
      "『": 708,
      "』": 709,
      "【": 710,
      "】": 711,
      "〜": 712,
      "あ": 713,
      "い": 714,
      "う": 715,
      "か": 716,
      "が": 717,
      "く": 718,
      "し": 719,
      "す": 720,
      "た": 721,
      "っ": 722,
      "て": 723,
      "で": 724,
      "と": 725,
      "な": 726,
      "に": 727,
      "の": 728,
      "は": 729,
      "ま": 730,
      "も": 731,
      "よ": 732,
      "ら": 733,
      "り": 734,
      "る": 735,
      "れ": 736,
      "ん": 737,
      "ア": 738,
      "イ": 739,
      "グ": 740,
      "ス": 741,
      "ッ": 742,
      "ツ": 743,
      "ト": 744,
      "フ": 745,
      "ラ": 746,
      "ル": 747,
      "ヲ": 748,
      "ン": 749,
      "・": 750,
      "ー": 751,
      "一": 752,
      "中": 753,
      "人": 754,
      "你": 755,
      "例": 756,
      "値": 757,
      "冤": 758,
      "冦": 759,
      "冱": 760,
      "加": 761,
      "多": 762,
      "大": 763,
      "子": 764,
      "帳": 765,
      "抣": 766,
      "抦": 767,
      "抯": 768,
      "文": 769,
      "日": 770,
      "更": 771,
      "火": 772,
      "的": 773,
      "窶": 774,
      "追": 775,
      "게": 776,
      "뀐": 777,
      "사": 778,
      "시": 779,
      "신": 780,
      "이": 781,
      "": 782,
      "": 783,
      "": 784,
      "": 785,
      "": 786,
      "": 787,
      "": 788,
      "": 789,
      "": 790,
      "": 791,
      "": 792,
      "": 793,
      "": 794,
      "": 795,
      "": 796,
      "": 797,
      "": 798,
      "": 799,
      "": 800,
      "": 801,
      "": 802,
      "": 803,
      "": 804,
      "": 805,
      "": 806,
      "": 807,
      "": 808,
      "": 809,
      "": 810,
      "": 811,
      "︎": 812,
      "️": 813,
      "﻿": 814,
      "￼": 815,
      "�": 816,
      "🇦": 817,
      "🇨": 818,
      "🇩": 819,
      "🇪": 820,
      "🇫": 821,
      "🇷": 822,
      "🇸": 823,
      "🇺": 824,
      "🌈": 825,
      "🌊": 826,
      "🌍": 827,
      "🌎": 828,
      "🌞": 829,
      "🌟": 830,
      "🌱": 831,
      "🌲": 832,
      "🌴": 833,
      "🌷": 834,
      "🌸": 835,
      "🌹": 836,
      "🌺": 837,
      "🌻": 838,
      "🌿": 839,
      "🍀": 840,
      "🍁": 841,
      "🍃": 842,
      "🍷": 843,
      "🍻": 844,
      "🍾": 845,
      "🎀": 846,
      "🎁": 847,
      "🎂": 848,
      "🎃": 849,
      "🎄": 850,
      "🎅": 851,
      "🎈": 852,
      "🎉": 853,
      "🎊": 854,
      "🎤": 855,
      "🎥": 856,
      "🎶": 857,
      "🎼": 858,
      "🏃": 859,
      "🏆": 860,
      "🏠": 861,
      "🏳": 862,
      "🏻": 863,
      "🏼": 864,
      "🏽": 865,
      "🏾": 866,
      "🐈": 867,
      "🐶": 868,
      "🐾": 869,
      "👀": 870,
      "👇": 871,
      "👉": 872,
      "👊": 873,
      "👋": 874,
      "👌": 875,
      "👍": 876,
      "👎": 877,
      "👏": 878,
      "👑": 879,
      "👦": 880,
      "👧": 881,
      "👨": 882,
      "👩": 883,
      "👼": 884,
      "👿": 885,
      "💀": 886,
      "💁": 887,
      "💃": 888,
      "💋": 889,
      "💎": 890,
      "💐": 891,
      "💓": 892,
      "💔": 893,
      "💕": 894,
      "💖": 895,
      "💗": 896,
      "💘": 897,
      "💙": 898,
      "💚": 899,
      "💛": 900,
      "💜": 901,
      "💝": 902,
      "💞": 903,
      "💟": 904,
      "💡": 905,
      "💥": 906,
      "💦": 907,
      "💨": 908,
      "💪": 909,
      "💫": 910,
      "💯": 911,
      "💰": 912,
      "💻": 913,
      "📌": 914,
      "📚": 915,
      "📞": 916,
      "📲": 917,
      "📷": 918,
      "📸": 919,
      "🔝": 920,
      "🔟": 921,
      "🔥": 922,
      "🔴": 923,
      "🕯": 924,
      "🖤": 925,
      "😀": 926,
      "😁": 927,
      "😂": 928,
      "😃": 929,
      "😄": 930,
      "😅": 931,
      "😆": 932,
      "😇": 933,
      "😈": 934,
      "😉": 935,
      "😊": 936,
      "😋": 937,
      "😌": 938,
      "😍": 939,
      "😎": 940,
      "😏": 941,
      "😐": 942,
      "😑": 943,
      "😒": 944,
      "😓": 945,
      "😔": 946,
      "😕": 947,
      "😖": 948,
      "😘": 949,
      "😙": 950,
      "😚": 951,
      "😛": 952,
      "😜": 953,
      "😝": 954,
      "😞": 955,
      "😠": 956,
      "😡": 957,
      "😢": 958,
      "😣": 959,
      "😤": 960,
      "😥": 961,
      "😦": 962,
      "😨": 963,
      "😩": 964,
      "😪": 965,
      "😫": 966,
      "😬": 967,
      "😭": 968,
      "😮": 969,
      "😯": 970,
      "😱": 971,
      "😲": 972,
      "😳": 973,
      "😴": 974,
      "😵": 975,
      "😻": 976,
      "🙁": 977,
      "🙂": 978,
      "🙃": 979,
      "🙄": 980,
      "🙈": 981,
      "🙊": 982,
      "🙋": 983,
      "🙌": 984,
      "🙎": 985,
      "🙏": 986,
      "🚀": 987,
      "🤓": 988,
      "🤔": 989,
      "🤗": 990,
      "🤘": 991,
      "🤞": 992,
      "🤣": 993,
      "🤤": 994,
      "🤦": 995,
      "🤨": 996,
      "🤩": 997,
      "🤪": 998,
      "🤷": 999,
      "🥂": 1000,
      "🥇": 1001,
      "🥰": 1002,
      "🦄": 1003,
      "🦋": 1004,
      "🦓": 1005,
      "en": 1006,
      "er": 1007,
      "▁d": 1008,
      "es": 1009,
      "▁a": 1010,
      "in": 1011,
      "▁s": 1012,
      "on": 1013,
      "▁t": 1014,
      "ch": 1015,
      "▁p": 1016,
      "▁l": 1017,
      "an": 1018,
      "▁c": 1019,
      "re": 1020,
      "▁de": 1021,
      "un": 1022,
      "▁m": 1023,
      "is": 1024,
      "it": 1025,
      "ar": 1026,
      "as": 1027,
      "or": 1028,
      "▁e": 1029,
      "ou": 1030,
      "os": 1031,
      "▁w": 1032,
      "te": 1033,
      "qu": 1034,
      "ie": 1035,
      "al": 1036,
      "▁n": 1037,
      "ti": 1038,
      "▁f": 1039,
      ".\n": 1040,
      "▁b": 1041,
      "▁h": 1042,
      "▁th": 1043,
      "▁un": 1044,
      "ent": 1045,
      "le": 1046,
      "▁v": 1047,
      "▁qu": 1048,
      "om": 1049,
      "▁g": 1050,
      "ci": 1051,
      "ich": 1052,
      "▁in": 1053,
      "at": 1054,
      "us": 1055,
      "ur": 1056,
      "▁la": 1057,
      "▁o": 1058,
      "ad": 1059,
      "▁S": 1060,
      "il": 1061,
      "el": 1062,
      "▁the": 1063,
      "▁y": 1064,
      "ro": 1065,
      "▁an": 1066,
      "▁en": 1067,
      "ra": 1068,
      "▁es": 1069,
      "▁A": 1070,
      "▁que": 1071,
      "ing": 1072,
      "ir": 1073,
      "▁I": 1074,
      "et": 1075,
      "▁to": 1076,
      "id": 1077,
      "im": 1078,
      "▁D": 1079,
      "ic": 1080,
      "▁E": 1081,
      "ed": 1082,
      "▁se": 1083,
      "▁con": 1084,
      "ol": 1085,
      "ig": 1086,
      "tion": 1087,
      "▁re": 1088,
      "am": 1089,
      "em": 1090,
      "▁M": 1091,
      "ut": 1092,
      "our": 1093,
      "ter": 1094,
      "▁T": 1095,
      "▁L": 1096,
      "ta": 1097,
      "▁P": 1098,
      "▁al": 1099,
      "▁j": 1100,
      "▁B": 1101,
      "▁r": 1102,
      "▁le": 1103,
      "ers": 1104,
      "▁of": 1105,
      "ten": 1106,
      "▁und": 1107,
      "▁el": 1108,
      "▁ein": 1109,
      "..": 1110,
      "▁and": 1111,
      "ab": 1112,
      "▁C": 1113,
      "▁des": 1114,
      "ve": 1115,
      "ung": 1116,
      "▁au": 1117,
      "▁der": 1118,
      "▁die": 1119,
      "▁par": 1120,
      "▁be": 1121,
      "▁z": 1122,
      "and": 1123,
      "▁is": 1124,
      "▁W": 1125,
      "▁no": 1126,
      "▁com": 1127,
      "ce": 1128,
      "▁k": 1129,
      "ge": 1130,
      "end": 1131,
      "um": 1132,
      "▁F": 1133,
      "ant": 1134,
      "st": 1135,
      "▁et": 1136,
      "ón": 1137,
      "la": 1138,
      "▁G": 1139,
      "hr": 1140,
      "est": 1141,
      "▁pro": 1142,
      "▁1": 1143,
      "ier": 1144,
      "▁H": 1145,
      "ul": 1146,
      "▁su": 1147,
      "▁à": 1148,
      "▁(": 1149,
      "▁2": 1150,
      "ien": 1151,
      "der": 1152,
      "▁me": 1153,
      "ct": 1154,
      "eit": 1155,
      "▁pr": 1156,
      "ber": 1157,
      "▁N": 1158,
      "de": 1159,
      "▁les": 1160,
      "ous": 1161,
      "▁R": 1162,
      "ation": 1163,
      "▁so": 1164,
      "ción": 1165,
      "▁for": 1166,
      "ach": 1167,
      "▁on": 1168,
      "▁ne": 1169,
      "▁K": 1170,
      "ion": 1171,
      "▁V": 1172,
      "▁ha": 1173,
      "lich": 1174,
      "▁das": 1175,
      "▁est": 1176,
      "ot": 1177,
      "▁los": 1178,
      "se": 1179,
      "▁di": 1180,
      "▁J": 1181,
      "au": 1182,
      "en,": 1183,
      "▁im": 1184,
      "icht": 1185,
      "▁pas": 1186,
      "ver": 1187,
      "ans": 1188,
      "ay": 1189,
      "ür": 1190,
      "▁zu": 1191,
      "ess": 1192,
      "ib": 1193,
      "▁U": 1194,
      "tr": 1195,
      "me": 1196,
      "ere": 1197,
      "he": 1198,
      "sch": 1199,
      "ne": 1200,
      "pr": 1201,
      "ff": 1202,
      "▁lo": 1203,
      "ly": 1204,
      "out": 1205,
      "▁ch": 1206,
      "o,": 1207,
      "ag": 1208,
      "ck": 1209,
      "▁ex": 1210,
      "iv": 1211,
      "▁den": 1212,
      "ment": 1213,
      "▁du": 1214,
      "▁las": 1215,
      "pp": 1216,
      "▁you": 1217,
      "ais": 1218,
      "lo": 1219,
      "ind": 1220,
      "▁tr": 1221,
      "ine": 1222,
      "▁ist": 1223,
      "ort": 1224,
      "▁pour": 1225,
      "▁wh": 1226,
      "▁as": 1227,
      "▁that": 1228,
      "od": 1229,
      "▁del": 1230,
      "que": 1231,
      "és": 1232,
      "und": 1233,
      "es,": 1234,
      "ill": 1235,
      "gen": 1236,
      "▁fa": 1237,
      "ue": 1238,
      "▁it": 1239,
      "pe": 1240,
      "▁por": 1241,
      "ann": 1242,
      "▁é": 1243,
      "ist": 1244,
      "ll": 1245,
      "▁O": 1246,
      "ire": 1247,
      "s,": 1248,
      "▁nicht": 1249,
      "▁er": 1250,
      "a,": 1251,
      "▁ver": 1252,
      "▁para": 1253,
      "uch": 1254,
      "if": 1255,
      "ente": 1256,
      "ado": 1257,
      "▁pl": 1258,
      "▁mit": 1259,
      "00": 1260,
      "ow": 1261,
      "▁auf": 1262,
      "▁von": 1263,
      "▁\"": 1264,
      "▁ge": 1265,
      "en.": 1266,
      "ient": 1267,
      "▁son": 1268,
      "▁In": 1269,
      "ith": 1270,
      "ma": 1271,
      "▁man": 1272,
      "▁per": 1273,
      "▁mo": 1274,
      "▁he": 1275,
      "▁ab": 1276,
      "iz": 1277,
      "▁una": 1278,
      "▁we": 1279,
      "ud": 1280,
      "...": 1281,
      "op": 1282,
      "tre": 1283,
      "▁ac": 1284,
      "▁wir": 1285,
      "▁or": 1286,
      "▁hab": 1287,
      "▁ich": 1288,
      "▁dé": 1289,
      "ens": 1290,
      "▁l’": 1291,
      "t,": 1292,
      "▁für": 1293,
      "▁je": 1294,
      "▁ser": 1295,
      "cion": 1296,
      "ke": 1297,
      "▁sch": 1298,
      "ement": 1299,
      "tiv": 1300,
      "▁ent": 1301,
      "▁was": 1302,
      "▁with": 1303,
      "▁-": 1304,
      "▁dem": 1305,
      "▁sur": 1306,
      "▁une": 1307,
      "per": 1308,
      "ell": 1309,
      "th": 1310,
      "▁l'": 1311,
      "▁Z": 1312,
      "▁An": 1313,
      "ación": 1314,
      "▁pu": 1315,
      "▁sich": 1316,
      "ite": 1317,
      "▁pe": 1318,
      "▁do": 1319,
      "ér": 1320,
      "▁fr": 1321,
      "▁d’": 1322,
      "ht": 1323,
      "bl": 1324,
      "▁aus": 1325,
      "▁\n": 1326,
      "for": 1327,
      "iel": 1328,
      "to": 1329,
      "▁En": 1330,
      "che": 1331,
      "den": 1332,
      "▁Un": 1333,
      "ía": 1334,
      "du": 1335,
      "tic": 1336,
      "io": 1337,
      "▁am": 1338,
      "▁qui": 1339,
      "▁dans": 1340,
      "ia": 1341,
      "▁at": 1342,
      "▁d'": 1343,
      "▁comp": 1344,
      "▁gr": 1345,
      "all": 1346,
      "ás": 1347,
      "▁auch": 1348,
      "▁ma": 1349,
      "▁20": 1350,
      "?\n": 1351,
      "ure": 1352,
      "ld": 1353,
      "ac": 1354,
      "▁cu": 1355,
      "▁res": 1356,
      "ap": 1357,
      "▁te": 1358,
      "▁st": 1359,
      "e,": 1360,
      "mer": 1361,
      "▁all": 1362,
      "▁ce": 1363,
      "!\n": 1364,
      "▁3": 1365,
      "▁are": 1366,
      "idad": 1367,
      "▁i": 1368,
      "ces": 1369,
      "▁Le": 1370,
      "enn": 1371,
      "▁eine": 1372,
      "ies": 1373,
      "ate": 1374,
      "mp": 1375,
      "▁ar": 1376,
      "▁Sie": 1377,
      "▁dis": 1378,
      "up": 1379,
      "bre": 1380,
      "ah": 1381,
      "erson": 1382,
      "res": 1383,
      "▁tra": 1384,
      "▁“": 1385,
      "ang": 1386,
      "we": 1387,
      "ici": 1388,
      "pl": 1389,
      "▁have": 1390,
      "▁don": 1391,
      "▁als": 1392,
      "men": 1393,
      "chen": 1394,
      "ux": 1395,
      "ft": 1396,
      "aus": 1397,
      "▁sol": 1398,
      "▁plus": 1399,
      "ée": 1400,
      "▁us": 1401,
      "▁La": 1402,
      "▁ré": 1403,
      "▁Th": 1404,
      "ins": 1405,
      "ard": 1406,
      "▁Re": 1407,
      "▁vous": 1408,
      "ust": 1409,
      "▁your": 1410,
      "co": 1411,
      "▁this": 1412,
      "av": 1413,
      "▁pre": 1414,
      "▁dies": 1415,
      "▁:": 1416,
      "▁sie": 1417,
      "iss": 1418,
      "▁The": 1419,
      "▁ad": 1420,
      "ada": 1421,
      "▁wie": 1422,
      "ons": 1423,
      "be": 1424,
      "▁Sch": 1425,
      "ass": 1426,
      "...\n": 1427,
      "▁si": 1428,
      "ug": 1429,
      "▁wer": 1430,
      "▁pos": 1431,
      "og": 1432,
      "t.": 1433,
      "▁201": 1434,
      "ante": 1435,
      "ern": 1436,
      "▁not": 1437,
      "ble": 1438,
      "▁Die": 1439,
      "ste": 1440,
      "are": 1441,
      "ahr": 1442,
      "▁il": 1443,
      "ok": 1444,
      "tra": 1445,
      "über": 1446,
      "ip": 1447,
      "▁dass": 1448,
      "▁av": 1449,
      "urs": 1450,
      "▁Ver": 1451,
      "▁Y": 1452,
      "▁can": 1453,
      "ould": 1454,
      "▁person": 1455,
      "ben": 1456,
      "ome": 1457,
      "▁hat": 1458,
      "ance": 1459,
      "elle": 1460,
      "tig": 1461,
      "▁inter": 1462,
      "ts": 1463,
      "con": 1464,
      "än": 1465,
      "os,": 1466,
      "ales": 1467,
      "▁ou": 1468,
      "ait": 1469,
      "▁mon": 1470,
      "ide": 1471,
      "do": 1472,
      "▁Be": 1473,
      "ven": 1474,
      "ord": 1475,
      "able": 1476,
      "ise": 1477,
      "▁sh": 1478,
      "uf": 1479,
      "nen": 1480,
      "age": 1481,
      "▁po": 1482,
      "gr": 1483,
      "ando": 1484,
      "▁go": 1485,
      "▁co": 1486,
      "etz": 1487,
      "▁El": 1488,
      "▁más": 1489,
      "én": 1490,
      "her": 1491,
      "▁uns": 1492,
      "uer": 1493,
      "▁Es": 1494,
      "ité": 1495,
      "▁cl": 1496,
      "▁will": 1497,
      "ein": 1498,
      "ön": 1499,
      "cer": 1500,
      "▁–": 1501,
      "▁ave": 1502,
      "▁oder": 1503,
      "cia": 1504,
      "▁sind": 1505,
      "▁has": 1506,
      "art": 1507,
      "s.": 1508,
      "▁como": 1509,
      "▁sa": 1510,
      "mo": 1511,
      "▁war": 1512,
      "▁dur": 1513,
      "en.\n": 1514,
      "▁über": 1515,
      "ual": 1516,
      "ciones": 1517,
      "cl": 1518,
      "je": 1519,
      "▁De": 1520,
      "ign": 1521,
      "ai": 1522,
      "ès": 1523,
      "kt": 1524,
      "go": 1525,
      "▁4": 1526,
      "omm": 1527,
      "▁ra": 1528,
      "rit": 1529,
      "▁cons": 1530,
      "ungen": 1531,
      "▁bien": 1532,
      "ted": 1533,
      "▁imp": 1534,
      "form": 1535,
      "▁my": 1536,
      "fer": 1537,
      "ction": 1538,
      "▁vor": 1539,
      "▁ob": 1540,
      "▁fin": 1541,
      "▁Er": 1542,
      "anz": 1543,
      "▁um": 1544,
      "▁tu": 1545,
      "▁cas": 1546,
      "▁5": 1547,
      "▁Pro": 1548,
      "▁nach": 1549,
      "ère": 1550,
      ")\n": 1551,
      "ik": 1552,
      "▁sp": 1553,
      "hl": 1554,
      "▁avec": 1555,
      "ari": 1556,
      "▁Ar": 1557,
      "les": 1558,
      "oir": 1559,
      "▁but": 1560,
      "▁aut": 1561,
      "fe": 1562,
      "ive": 1563,
      "ale": 1564,
      "esch": 1565,
      "▁pla": 1566,
      "▁her": 1567,
      "'s": 1568,
      "ica": 1569,
      "ult": 1570,
      "ique": 1571,
      "▁car": 1572,
      "▁da": 1573,
      "ose": 1574,
      "’s": 1575,
      "ank": 1576,
      "'est": 1577,
      "ight": 1578,
      "▁from": 1579,
      "ick": 1580,
      "▁Al": 1581,
      "ition": 1582,
      "▁St": 1583,
      "cu": 1584,
      "▁noch": 1585,
      "▁gen": 1586,
      "▁Se": 1587,
      "ity": 1588,
      "oy": 1589,
      "▁kann": 1590,
      "tes": 1591,
      "▁mais": 1592,
      "té": 1593,
      "▁bei": 1594,
      "ru": 1595,
      "cial": 1596,
      "ille": 1597,
      "▁We": 1598,
      "ice": 1599,
      "as,": 1600,
      "aj": 1601,
      "▁tout": 1602,
      "ido": 1603,
      "ger": 1604,
      "▁wird": 1605,
      "▁sein": 1606,
      "▁mar": 1607,
      "▁19": 1608,
      "▁real": 1609,
      "ados": 1610,
      "uss": 1611,
      "ungs": 1612,
      "til": 1613,
      "ors": 1614,
      "án": 1615,
      "igen": 1616,
      "itu": 1617,
      "oll": 1618,
      "ner": 1619,
      ":\n": 1620,
      "uest": 1621,
      "ond": 1622,
      "ette": 1623,
      "oc": 1624,
      "▁wor": 1625,
      "▁by": 1626,
      "gan": 1627,
      "▁pued": 1628,
      "▁ve": 1629,
      "▁Je": 1630,
      "ouv": 1631,
      "▁pa": 1632,
      "uy": 1633,
      "▁fe": 1634,
      "oug": 1635,
      "ui": 1636,
      "▁they": 1637,
      "▁esta": 1638,
      "hen": 1639,
      "une": 1640,
      "hn": 1641,
      "▁einen": 1642,
      "tim": 1643,
      "ied": 1644,
      "▁much": 1645,
      "hal": 1646,
      "▁bes": 1647,
      "▁vers": 1648,
      "▁Ich": 1649,
      "▁app": 1650,
      "▁mal": 1651,
      "▁rec": 1652,
      "tif": 1653,
      "▁„": 1654,
      "▁out": 1655,
      "▁sont": 1656,
      "ink": 1657,
      "▁aber": 1658,
      "es.\n": 1659,
      "ong": 1660,
      "▁li": 1661,
      "▁nur": 1662,
      "min": 1663,
      "emp": 1664,
      "amb": 1665,
      "▁ten": 1666,
      "▁tod": 1667,
      "ión": 1668,
      "s.\n": 1669,
      "▁up": 1670,
      "o.\n": 1671,
      "ime": 1672,
      "ost": 1673,
      "tern": 1674,
      "▁sus": 1675,
      "▁kön": 1676,
      "tel": 1677,
      "▁werden": 1678,
      "uen": 1679,
      "pa": 1680,
      "ile": 1681,
      "▁Q": 1682,
      "te,": 1683,
      "one": 1684,
      "▁Ge": 1685,
      "es.": 1686,
      "ub": 1687,
      "ze": 1688,
      "▁entre": 1689,
      "ak": 1690,
      "par": 1691,
      "ischen": 1692,
      "▁«": 1693,
      "▁Das": 1694,
      "▁nous": 1695,
      "ün": 1696,
      "▁pres": 1697,
      "▁cont": 1698,
      "ear": 1699,
      "ible": 1700,
      "être": 1701,
      "er,": 1702,
      "▁reg": 1703,
      "tell": 1704,
      "beit": 1705,
      "▁ag": 1706,
      "▁produ": 1707,
      "int": 1708,
      "’est": 1709,
      "▁about": 1710,
      "▁sin": 1711,
      "pos": 1712,
      "▁6": 1713,
      "ast": 1714,
      "▁einer": 1715,
      "▁get": 1716,
      "ont": 1717,
      "▁Il": 1718,
      "▁ind": 1719,
      "ques": 1720,
      "wer": 1721,
      "cr": 1722,
      "▁cre": 1723,
      "▁qu'": 1724,
      "▁dar": 1725,
      "tions": 1726,
      "▁ap": 1727,
      "▁»": 1728,
      "▁dire": 1729,
      "▁one": 1730,
      "▁more": 1731,
      "ät": 1732,
      "▁Par": 1733,
      "vers": 1734,
      "ild": 1735,
      "ade": 1736,
      "▁mis": 1737,
      "era": 1738,
      "ges": 1739,
      "ute": 1740,
      "▁serv": 1741,
      "▁zum": 1742,
      "ain": 1743,
      "▁wenn": 1744,
      "isch": 1745,
      "ours": 1746,
      "▁mehr": 1747,
      "▁ges": 1748,
      "▁ter": 1749,
      "iento": 1750,
      "leg": 1751,
      "ob": 1752,
      "▁It": 1753,
      "ores": 1754,
      "ence": 1755,
      "▁some": 1756,
      "a.": 1757,
      "▁einem": 1758,
      "ück": 1759,
      "ros": 1760,
      "▁Ein": 1761,
      "▁zur": 1762,
      "▁op": 1763,
      "▁Te": 1764,
      "ial": 1765,
      "▁fait": 1766,
      "mal": 1767,
      "bar": 1768,
      "aut": 1769,
      "▁nos": 1770,
      "ör": 1771,
      "▁Gr": 1772,
      "▁cor": 1773,
      "▁ins": 1774,
      "amente": 1775,
      "ame": 1776,
      "gra": 1777,
      "o.": 1778,
      "▁his": 1779,
      "▁mir": 1780,
      "keit": 1781,
      "ase": 1782,
      "oup": 1783,
      "▁fo": 1784,
      "▁Ab": 1785,
      "▁este": 1786,
      "'t": 1787,
      "now": 1788,
      "▁em": 1789,
      "a.\n": 1790,
      "t.\n": 1791,
      "amos": 1792,
      "▁any": 1793,
      "▁ers": 1794,
      "▁med": 1795,
      "▁Fr": 1796,
      "éc": 1797,
      "▁añ": 1798,
      "tive": 1799,
      "▁may": 1800,
      "iste": 1801,
      "mente": 1802,
      "▁Ch": 1803,
      "),": 1804,
      "sen": 1805,
      "▁pero": 1806,
      "▁faire": 1807,
      "fr": 1808,
      "▁cr": 1809,
      "ême": 1810,
      "iend": 1811,
      "pu": 1812,
      "ations": 1813,
      "cid": 1814,
      "▁No": 1815,
      "▁their": 1816,
      "▁He": 1817,
      "▁200": 1818,
      "▁ro": 1819,
      "▁who": 1820,
      "ough": 1821,
      "▁sal": 1822,
      "ack": 1823,
      "ées": 1824,
      "▁what": 1825,
      "▁unter": 1826,
      "▁durch": 1827,
      "▁ihr": 1828,
      "▁vis": 1829,
      "▁if": 1830,
      "▁prof": 1831,
      "▁So": 1832,
      "scha": 1833,
      "▁would": 1834,
      "▁br": 1835,
      "fü": 1836,
      "▁Aus": 1837,
      "▁men": 1838,
      "▁there": 1839,
      "fin": 1840,
      "glich": 1841,
      "pres": 1842,
      "▁7": 1843,
      "ater": 1844,
      "mit": 1845,
      "▁bis": 1846,
      "▁like": 1847,
      "br": 1848,
      ").\n": 1849,
      "com": 1850,
      "▁alle": 1851,
      "cre": 1852,
      "▁ke": 1853,
      "▁10": 1854,
      "hre": 1855,
      "▁cer": 1856,
      "ige": 1857,
      "eren": 1858,
      "otre": 1859,
      "▁aux": 1860,
      "onn": 1861,
      "ore": 1862,
      "▁had": 1863,
      "▁Der": 1864,
      "▁pol": 1865,
      "!!": 1866,
      "▁qu’": 1867,
      "▁col": 1868,
      "▁Les": 1869,
      "▁parti": 1870,
      "ents": 1871,
      "▁soll": 1872,
      "▁off": 1873,
      "y,": 1874,
      "är": 1875,
      "▁vie": 1876,
      "▁Jahr": 1877,
      "ios": 1878,
      "erv": 1879,
      "▁Mit": 1880,
      "ende": 1881,
      "▁min": 1882,
      "\"\n": 1883,
      "▁them": 1884,
      "▁Sp": 1885,
      "▁tien": 1886,
      "vel": 1887,
      "▁dann": 1888,
      "enden": 1889,
      "▁know": 1890,
      "’t": 1891,
      "ca": 1892,
      "och": 1893,
      "▁8": 1894,
      "▁viel": 1895,
      "▁mich": 1896,
      "dern": 1897,
      "▁Com": 1898,
      "▁cette": 1899,
      "▁seg": 1900,
      "▁just": 1901,
      "ico": 1902,
      "aux": 1903,
      "cht": 1904,
      "▁haben": 1905,
      "▁schon": 1906,
      "▁our": 1907,
      "ther": 1908,
      "▁Con": 1909,
      "cul": 1910,
      "▁j'": 1911,
      "▁work": 1912,
      "▁u": 1913,
      "▁Ne": 1914,
      "▁jed": 1915,
      "▁wur": 1916,
      "▁rela": 1917,
      "▁act": 1918,
      "emos": 1919,
      "cip": 1920,
      "ph": 1921,
      "▁diff": 1922,
      "ays": 1923,
      "▁sehr": 1924,
      "▁been": 1925,
      "▁mi": 1926,
      "aire": 1927,
      "▁comm": 1928,
      "ings": 1929,
      "heit": 1930,
      "cep": 1931,
      "▁part": 1932,
      "lichen": 1933,
      "auf": 1934,
      "▁lie": 1935,
      "▁find": 1936,
      "▁time": 1937,
      "▁comme": 1938,
      "▁inv": 1939,
      "geb": 1940,
      "ún": 1941,
      "▁Wir": 1942,
      "▁votre": 1943,
      "ida": 1944,
      "éd": 1945,
      "unt": 1946,
      "▁n'": 1947,
      "▁mach": 1948,
      "oment": 1949,
      "olog": 1950,
      "▁pass": 1951,
      "amil": 1952,
      "▁ç": 1953,
      "ero": 1954,
      "amp": 1955,
      "ail": 1956,
      "los": 1957,
      "i,": 1958,
      "▁tou": 1959,
      "▁also": 1960,
      "lement": 1961,
      "▁sel": 1962,
      "▁sobre": 1963,
      "man": 1964,
      "▁which": 1965,
      "▁¿": 1966,
      "atur": 1967,
      "▁weit": 1968,
      "al,": 1969,
      "▁fre": 1970,
      "ider": 1971,
      "▁when": 1972,
      "▁c'est": 1973,
      "ambi": 1974,
      "▁ste": 1975,
      "elt": 1976,
      "ior": 1977,
      "▁hier": 1978,
      "▁même": 1979,
      "zu": 1980,
      "ière": 1981,
      "▁bet": 1982,
      "wo": 1983,
      "▁vo": 1984,
      "▁Mar": 1985,
      "chn": 1986,
      "▁Si": 1987,
      "▁year": 1988,
      "▁mein": 1989,
      "▁wieder": 1990,
      "▁être": 1991,
      "abe": 1992,
      "ause": 1993,
      "▁trans": 1994,
      "ession": 1995,
      "▁ta": 1996,
      "▁9": 1997,
      "ibt": 1998,
      "imp": 1999,
      "ene": 2000,
      "land": 2001,
      "▁immer": 2002,
      "▁peut": 2003,
      "▁publ": 2004,
      "lie": 2005,
      "▁prop": 2006,
      "no": 2007,
      "ange": 2008,
      "▁inst": 2009,
      "ahl": 2010,
      "ras": 2011,
      "▁muy": 2012,
      "▁habe": 2013,
      "▁ph": 2014,
      "ex": 2015,
      "▁grand": 2016,
      "si": 2017,
      "utz": 2018,
      "▁mes": 2019,
      "▁import": 2020,
      "cto": 2021,
      "▁temp": 2022,
      "▁ya": 2023,
      "▁Vor": 2024,
      "ffe": 2025,
      "ople": 2026,
      "jet": 2027,
      "▁cal": 2028,
      "ora": 2029,
      "tait": 2030,
      "ook": 2031,
      "▁ev": 2032,
      "ix": 2033,
      "entes": 2034,
      "▁Zeit": 2035,
      "▁ever": 2036,
      "▁peu": 2037,
      "aten": 2038,
      "baj": 2039,
      "schaft": 2040,
      "▁!": 2041,
      "isten": 2042,
      "▁As": 2043,
      "low": 2044,
      "ants": 2045,
      "▁Pr": 2046,
      "ische": 2047,
      "▁nuest": 2048,
      "▁sta": 2049,
      "ese": 2050,
      "▁alg": 2051,
      "▁mod": 2052,
      "ario": 2053,
      "▁très": 2054,
      "liche": 2055,
      "air": 2056,
      "▁how": 2057,
      "fl": 2058,
      "rag": 2059,
      "ced": 2060,
      "adas": 2061,
      "lev": 2062,
      "▁todo": 2063,
      "▁?": 2064,
      "schen": 2065,
      "os.\n": 2066,
      "▁moment": 2067,
      "ats": 2068,
      "ish": 2069,
      "▁cap": 2070,
      "log": 2071,
      "sel": 2072,
      "▁ça": 2073,
      "dad": 2074,
      "atz": 2075,
      "▁emp": 2076,
      "▁Tr": 2077,
      "▁gro": 2078,
      "▁Auf": 2079,
      "▁!\n": 2080,
      "▁were": 2081,
      "cess": 2082,
      "gel": 2083,
      "▁pod": 2084,
      "iert": 2085,
      "▁met": 2086,
      "tz": 2087,
      "▁hel": 2088,
      "iment": 2089,
      "▁können": 2090,
      "▁trav": 2091,
      "iden": 2092,
      "▁people": 2093,
      "▁form": 2094,
      "▁gut": 2095,
      "▁Wh": 2096,
      "▁Me": 2097,
      "20": 2098,
      "▁bon": 2099,
      "▁other": 2100,
      "▁You": 2101,
      "▁tro": 2102,
      "bst": 2103,
      "ís": 2104,
      "▁look": 2105,
      "ina": 2106,
      "its": 2107,
      "ing,": 2108,
      "▁For": 2109,
      "▁Fra": 2110,
      "▁resp": 2111,
      "ical": 2112,
      "ouve": 2113,
      "cias": 2114,
      "tain": 2115,
      "formation": 2116,
      "000": 2117,
      "▁ni": 2118,
      "▁need": 2119,
      "äch": 2120,
      "reat": 2121,
      "hm": 2122,
      "▁Men": 2123,
      "bs": 2124,
      "▁incl": 2125,
      "endre": 2126,
      "jor": 2127,
      "▁gar": 2128,
      "ommen": 2129,
      "rie": 2130,
      "▁ganz": 2131,
      "▁const": 2132,
      "cción": 2133,
      "▁Qu": 2134,
      "▁Est": 2135,
      "anc": 2136,
      "▁...": 2137,
      "öglich": 2138,
      "▁prim": 2139,
      "ils": 2140,
      "▁ses": 2141,
      "tag": 2142,
      "▁Unter": 2143,
      "▁she": 2144,
      "uev": 2145,
      "▁quel": 2146,
      "▁diese": 2147,
      "▁Or": 2148,
      "▁nom": 2149,
      "enta": 2150,
      "cher": 2151,
      "▁pré": 2152,
      "▁sou": 2153,
      "iqu": 2154,
      "▁said": 2155,
      "tir": 2156,
      "etzt": 2157,
      "▁hay": 2158,
      "▁,": 2159,
      "vor": 2160,
      "▁fun": 2161,
      "ähr": 2162,
      "▁sy": 2163,
      "ler": 2164,
      "▁n’": 2165,
      "▁jus": 2166,
      "▁?\n": 2167,
      "▁new": 2168,
      "▁compr": 2169,
      "ura": 2170,
      "▁ass": 2171,
      "▁trabaj": 2172,
      "gram": 2173,
      "itt": 2174,
      "▁wo": 2175,
      "▁On": 2176,
      "▁dev": 2177,
      "▁over": 2178,
      "az": 2179,
      "ten,": 2180,
      "met": 2181,
      "ular": 2182,
      "ctor": 2183,
      "▁che": 2184,
      "▁suis": 2185,
      "▁This": 2186,
      "▁15": 2187,
      ").": 2188,
      "▁ber": 2189,
      "▁than": 2190,
      "▁contr": 2191,
      "él": 2192,
      "▁puede": 2193,
      "ambién": 2194,
      "▁conf": 2195,
      "▁util": 2196,
      "orte": 2197,
      "üs": 2198,
      "sp": 2199,
      "▁gra": 2200,
      "jo": 2201,
      "▁wurde": 2202,
      "▁rep": 2203,
      "”\n": 2204,
      "uro": 2205,
      "nis": 2206,
      "▁Und": 2207,
      "▁And": 2208,
      "entr": 2209,
      "▁organ": 2210,
      "▁18": 2211,
      "le,": 2212,
      "encia": 2213,
      "▁Au": 2214,
      "▁think": 2215,
      "▁Nach": 2216,
      "▁fir": 2217,
      "▁está": 2218,
      "▁pet": 2219,
      "ues": 2220,
      "▁str": 2221,
      "app": 2222,
      "leich": 2223,
      "▁exper": 2224,
      "ions": 2225,
      "▁jour": 2226,
      "▁été": 2227,
      "▁bec": 2228,
      "mar": 2229,
      "ER": 2230,
      "▁lui": 2231,
      "▁hacer": 2232,
      "fach": 2233,
      "▁see": 2234,
      "▁spe": 2235,
      "▁him": 2236,
      "▁etw": 2237,
      "rol": 2238,
      "▁long": 2239,
      "▁Et": 2240,
      "▁fol": 2241,
      "igh": 2242,
      "▁werd": 2243,
      "▁ger": 2244,
      "▁Ges": 2245,
      "▁aussi": 2246,
      "▁mat": 2247,
      "▁leur": 2248,
      "▁ont": 2249,
      "▁dr": 2250,
      "▁zw": 2251,
      "▁s’": 2252,
      "▁Ber": 2253,
      "▁Wo": 2254,
      "sche": 2255,
      "▁ces": 2256,
      "antes": 2257,
      "fahr": 2258,
      "ep": 2259,
      "ivers": 2260,
      "▁gibt": 2261,
      "▁Pour": 2262,
      "▁bus": 2263,
      "▁af": 2264,
      "w.": 2265,
      "▁Fre": 2266,
      "▁plan": 2267,
      "▁ho": 2268,
      "▁good": 2269,
      "▁Pl": 2270,
      "▁make": 2271,
      "ég": 2272,
      "vis": 2273,
      "▁s'": 2274,
      "▁bef": 2275,
      "own": 2276,
      "▁cel": 2277,
      "▁tie": 2278,
      "ador": 2279,
      "▁neces": 2280,
      "ense": 2281,
      "▁into": 2282,
      "reich": 2283,
      "▁could": 2284,
      "▁espe": 2285,
      "▁exp": 2286,
      "▁activ": 2287,
      "▁prin": 2288,
      "tro": 2289,
      "▁very": 2290,
      "▁[": 2291,
      "▁I'": 2292,
      "alt": 2293,
      "blem": 2294,
      "ouver": 2295,
      "ful": 2296,
      "gt": 2297,
      "inn": 2298,
      "▁Des": 2299,
      "▁did": 2300,
      "wn": 2301,
      "on,": 2302,
      "▁Ihr": 2303,
      "▁every": 2304,
      "▁elle": 2305,
      "▁mus": 2306,
      "ula": 2307,
      "teil": 2308,
      "▁ques": 2309,
      "▁déc": 2310,
      "ert": 2311,
      "▁tous": 2312,
      "di": 2313,
      "▁famil": 2314,
      "▁gew": 2315,
      "ías": 2316,
      "▁back": 2317,
      "ication": 2318,
      "zeit": 2319,
      "▁Ent": 2320,
      "▁prés": 2321,
      "▁0": 2322,
      "▁intern": 2323,
      "ème": 2324,
      "près": 2325,
      "▁Dies": 2326,
      "▁val": 2327,
      "tet": 2328,
      "ga": 2329,
      "▁Los": 2330,
      "ctiv": 2331,
      "oci": 2332,
      "äl": 2333,
      "▁cual": 2334,
      "▁poss": 2335,
      "▁som": 2336,
      "▁könn": 2337,
      "dem": 2338,
      "vie": 2339,
      "▁12": 2340,
      "ichtig": 2341,
      "forma": 2342,
      "▁cuando": 2343,
      "▁If": 2344,
      "▁dos": 2345,
      "▁ir": 2346,
      "▁sig": 2347,
      "▁only": 2348,
      "cil": 2349,
      "▁hum": 2350,
      "aciones": 2351,
      "mos": 2352,
      "ital": 2353,
      "tend": 2354,
      "ument": 2355,
      "▁dam": 2356,
      "ister": 2357,
      "mes": 2358,
      "▁Her": 2359,
      "izar": 2360,
      "-S": 2361,
      "▁nuev": 2362,
      "ye": 2363,
      "▁loc": 2364,
      "▁va": 2365,
      "ES": 2366,
      "pport": 2367,
      "....": 2368,
      "▁sans": 2369,
      "ated": 2370,
      "▁deux": 2371,
      "▁gener": 2372,
      "gl": 2373,
      "isation": 2374,
      "▁prem": 2375,
      "▁Um": 2376,
      "▁way": 2377,
      "▁cos": 2378,
      "▁ja": 2379,
      "iente": 2380,
      "tt": 2381,
      "▁prov": 2382,
      "▁gu": 2383,
      "arbeit": 2384,
      "▁Du": 2385,
      "unden": 2386,
      "core": 2387,
      "▁bas": 2388,
      "▁unser": 2389,
      "▁oc": 2390,
      "za": 2391,
      "pt": 2392,
      "arn": 2393,
      "pon": 2394,
      "erci": 2395,
      "ace": 2396,
      "▁todos": 2397,
      "▁gem": 2398,
      "▁personn": 2399,
      "▁otr": 2400,
      "ar,": 2401,
      "arr": 2402,
      "ary": 2403,
      "▁c’est": 2404,
      "▁demand": 2405,
      "▁keine": 2406,
      "▁super": 2407,
      "is,": 2408,
      "ath": 2409,
      "idades": 2410,
      "ally": 2411,
      "▁contin": 2412,
      "▁arr": 2413,
      "ieren": 2414,
      "▁también": 2415,
      "as.\n": 2416,
      "▁tiemp": 2417,
      "ek": 2418,
      "EN": 2419,
      "led": 2420,
      "▁beau": 2421,
      "erg": 2422,
      "▁vom": 2423,
      "iter": 2424,
      "▁vol": 2425,
      "cional": 2426,
      "▁cour": 2427,
      "fol": 2428,
      "▁einfach": 2429,
      "▁dieser": 2430,
      "▁help": 2431,
      "▁Im": 2432,
      "elles": 2433,
      "ament": 2434,
      "get": 2435,
      "▁ann": 2436,
      "tement": 2437,
      "▁ide": 2438,
      "▁mejor": 2439,
      "uel": 2440,
      "▁situ": 2441,
      "▁Ex": 2442,
      "eld": 2443,
      "ration": 2444,
      "oi": 2445,
      ";\n": 2446,
      "act": 2447,
      "▁end": 2448,
      "▁dir": 2449,
      "sten": 2450,
      "ational": 2451,
      "pro": 2452,
      "ung,": 2453,
      "▁Mon": 2454,
      "red": 2455,
      "ender": 2456,
      "▁tant": 2457,
      "▁I’": 2458,
      "ará": 2459,
      "ures": 2460,
      "▁tiene": 2461,
      "▁30": 2462,
      "▁Mais": 2463,
      "inter": 2464,
      "▁here": 2465,
      "▁place": 2466,
      "▁kein": 2467,
      "▁Por": 2468,
      "hnen": 2469,
      "▁hist": 2470,
      "▁esc": 2471,
      "▁bin": 2472,
      "▁conse": 2473,
      "▁.": 2474,
      "▁bl": 2475,
      "▁bel": 2476,
      "▁vez": 2477,
      "▁sign": 2478,
      "▁simp": 2479,
      "▁should": 2480,
      "▁Arbeit": 2481,
      "enz": 2482,
      "lect": 2483,
      "▁site": 2484,
      "quier": 2485,
      "urn": 2486,
      "iger": 2487,
      "▁sag": 2488,
      "icación": 2489,
      "y.": 2490,
      "eth": 2491,
      "▁well": 2492,
      "▁ist,": 2493,
      "teur": 2494,
      "▁desde": 2495,
      "▁conc": 2496,
      "▁comple": 2497,
      "▁algun": 2498,
      "neh": 2499,
      "▁Man": 2500,
      "ule": 2501,
      "▁nor": 2502,
      "ba": 2503,
      "iß": 2504,
      "▁cada": 2505,
      "▁sen": 2506,
      "xim": 2507,
      "▁ihre": 2508,
      "▁(1": 2509,
      "▁mill": 2510,
      "▁j’": 2511,
      "ave": 2512,
      "änd": 2513,
      "▁Wenn": 2514,
      "▁Am": 2515,
      "att": 2516,
      "xt": 2517,
      "▁hand": 2518,
      "oth": 2519,
      "▁ans": 2520,
      "ét": 2521,
      "arios": 2522,
      "till": 2523,
      "▁bo": 2524,
      "▁now": 2525,
      "cho": 2526,
      "▁even": 2527,
      "▁pens": 2528,
      "▁main": 2529,
      "onder": 2530,
      "▁hom": 2531,
      "▁doch": 2532,
      "▁blog": 2533,
      ",\n": 2534,
      "arse": 2535,
      "▁art": 2536,
      "▁han": 2537,
      "af": 2538,
      "te.": 2539,
      "▁así": 2540,
      "ys": 2541,
      "▁forma": 2542,
      "tique": 2543,
      "▁buen": 2544,
      "gal": 2545,
      "▁ay": 2546,
      "▁muss": 2547,
      "▁nat": 2548,
      "▁sub": 2549,
      "▁want": 2550,
      "▁11": 2551,
      "▁commun": 2552,
      "vent": 2553,
      "▁eff": 2554,
      "▁these": 2555,
      "▁first": 2556,
      "▁Bes": 2557,
      "els": 2558,
      "▁But": 2559,
      "urr": 2560,
      "fall": 2561,
      "▁most": 2562,
      "ibil": 2563,
      "iff": 2564,
      "▁char": 2565,
      "use": 2566,
      "dition": 2567,
      "ife": 2568,
      "é,": 2569,
      "▁day": 2570,
      "utsch": 2571,
      "urch": 2572,
      "▁dro": 2573,
      "▁say": 2574,
      "▁really": 2575,
      "alk": 2576,
      "▁j'ai": 2577,
      "▁All": 2578,
      "▁non": 2579,
      "os.": 2580,
      "▁1.": 2581,
      "ités": 2582,
      "ting": 2583,
      "▁Ü": 2584,
      "▁Tag": 2585,
      "▁acc": 2586,
      "ito": 2587,
      "▁etwas": 2588,
      "line": 2589,
      "er.": 2590,
      "▁lib": 2591,
      "▁temps": 2592,
      "▁cho": 2593,
      "▁hasta": 2594,
      "▁wür": 2595,
      "ones": 2596,
      "entlich": 2597,
      "erst": 2598,
      "▁nun": 2599,
      "▁vra": 2600,
      "car": 2601,
      "kl": 2602,
      "▁env": 2603,
      "▁groß": 2604,
      "▁encore": 2605,
      "▁use": 2606,
      "▁:\n": 2607,
      "ely": 2608,
      "ió": 2609,
      "▁tom": 2610,
      "zo": 2611,
      "▁read": 2612,
      "▁public": 2613,
      "timm": 2614,
      "▁pra": 2615,
      "▁cam": 2616,
      "ing.": 2617,
      "▁...\n": 2618,
      "icher": 2619,
      "▁donc": 2620,
      "lein": 2621,
      "ícul": 2622,
      "fic": 2623,
      "▁Intern": 2624,
      "stell": 2625,
      "amiento": 2626,
      "▁thr": 2627,
      "olu": 2628,
      "ember": 2629,
      "▁dat": 2630,
      "ON": 2631,
      "▁princip": 2632,
      "▁great": 2633,
      "äs": 2634,
      "iem": 2635,
      "▁notre": 2636,
      "endo": 2637,
      "itz": 2638,
      "▁él": 2639,
      "re,": 2640,
      "▁DE": 2641,
      "▁mil": 2642,
      "agn": 2643,
      "gar": 2644,
      "hne": 2645,
      "▁qu'il": 2646,
      "▁rés": 2647,
      "▁aqu": 2648,
      "▁viv": 2649,
      "▁fuer": 2650,
      "▁porque": 2651,
      "▁14": 2652,
      "▁tot": 2653,
      "▁gel": 2654,
      "orn": 2655,
      "inder": 2656,
      "in,": 2657,
      "▁weiter": 2658,
      "▁bek": 2659,
      "als": 2660,
      "ices": 2661,
      "▁cent": 2662,
      "tigen": 2663,
      "ident": 2664,
      "itar": 2665,
      "▁equ": 2666,
      "fect": 2667,
      "n't": 2668,
      "ian": 2669,
      "▁lar": 2670,
      "ten.": 2671,
      "▁many": 2672,
      "▁—": 2673,
      "pect": 2674,
      "▁because": 2675,
      "▁sab": 2676,
      "▁selbst": 2677,
      "▁komm": 2678,
      "stem": 2679,
      "tik": 2680,
      "▁best": 2681,
      "▁fue": 2682,
      "bra": 2683,
      "cio": 2684,
      "▁nombre": 2685,
      "▁ref": 2686,
      "▁gegen": 2687,
      "bil": 2688,
      "öch": 2689,
      "▁Kon": 2690,
      "las": 2691,
      "wie": 2692,
      "duc": 2693,
      "führ": 2694,
      "ño": 2695,
      "ket": 2696,
      "▁wel": 2697,
      "▁int": 2698,
      "ustr": 2699,
      "ator": 2700,
      "cir": 2701,
      "unk": 2702,
      "▁contra": 2703,
      "201": 2704,
      "▁vos": 2705,
      "▁right": 2706,
      "▁prom": 2707,
      "ühr": 2708,
      "▁Gesch": 2709,
      "ino": 2710,
      "▁d’un": 2711,
      "▁techn": 2712,
      "▁dou": 2713,
      "▁mer": 2714,
      "▁pare": 2715,
      "\",": 2716,
      "▁16": 2717,
      "-M": 2718,
      "tens": 2719,
      "▁diesem": 2720,
      "▁Ihre": 2721,
      "urop": 2722,
      "▁dich": 2723,
      "▁take": 2724,
      "▁Br": 2725,
      "ita": 2726,
      "▁jetzt": 2727,
      "▁Ce": 2728,
      "▁geh": 2729,
      "▁where": 2730,
      "▁problem": 2731,
      "▁13": 2732,
      "▁such": 2733,
      "▁its": 2734,
      "iendo": 2735,
      "▁requ": 2736,
      "usam": 2737,
      "▁through": 2738,
      "iser": 2739,
      "cis": 2740,
      "cha": 2741,
      "abil": 2742,
      "thing": 2743,
      "▁Aber": 2744,
      "ant,": 2745,
      "▁wen": 2746,
      "▁hor": 2747,
      "▁Wer": 2748,
      "fici": 2749,
      "▁Was": 2750,
      "▁liv": 2751,
      "iques": 2752,
      "ites": 2753,
      "▁down": 2754,
      "▁actual": 2755,
      "old": 2756,
      "▁años": 2757,
      "iers": 2758,
      "▁experien": 2759,
      "ree": 2760,
      "lam": 2761,
      "other": 2762,
      "▁expl": 2763,
      "ticle": 2764,
      "fo": 2765,
      "▁dep": 2766,
      "ias": 2767,
      "med": 2768,
      "▁deb": 2769,
      "▁then": 2770,
      "▁trat": 2771,
      "▁star": 2772,
      "▁día": 2773,
      "▁podr": 2774,
      "▁17": 2775,
      "▁anderen": 2776,
      "pañ": 2777,
      "▁after": 2778,
      "eite": 2779,
      "▁faut": 2780,
      "▁again": 2781,
      "▁Las": 2782,
      "▁informa": 2783,
      "▁rest": 2784,
      "▁Wie": 2785,
      "tier": 2786,
      "▁denn": 2787,
      "ves": 2788,
      "▁yo": 2789,
      "▁eing": 2790,
      "▁Fe": 2791,
      "▁eines": 2792,
      "▁Ad": 2793,
      "▁question": 2794,
      "▁soci": 2795,
      "ission": 2796,
      "▁ren": 2797,
      "▁going": 2798,
      "lar": 2799,
      "▁does": 2800,
      "▁d'un": 2801,
      "wend": 2802,
      "▁ah": 2803,
      "▁priv": 2804,
      "▁mund": 2805,
      "ork": 2806,
      "▁fil": 2807,
      "fen": 2808,
      "▁Pre": 2809,
      "▁week": 2810,
      ".1": 2811,
      "▁woll": 2812,
      "▁program": 2813,
      "▁num": 2814,
      "gend": 2815,
      "ipo": 2816,
      "▁müs": 2817,
      "avoir": 2818,
      "issen": 2819,
      "▁parte": 2820,
      "érie": 2821,
      "iness": 2822,
      "▁Menschen": 2823,
      "▁Person": 2824,
      "▁personas": 2825,
      "▁cro": 2826,
      "▁25": 2827,
      "eln": 2828,
      "▁conta": 2829,
      "▁geht": 2830,
      "▁ret": 2831,
      "▁two": 2832,
      "et,": 2833,
      "way": 2834,
      "▁etc": 2835,
      "round": 2836,
      "aron": 2837,
      "▁dist": 2838,
      "ances": 2839,
      "▁mem": 2840,
      ".\"\n": 2841,
      "aires": 2842,
      "▁Su": 2843,
      "▁let": 2844,
      "-A": 2845,
      "n’t": 2846,
      "cen": 2847,
      "esta": 2848,
      "▁damit": 2849,
      "▁before": 2850,
      "jour": 2851,
      "ín": 2852,
      "jer": 2853,
      "▁quand": 2854,
      "▁était": 2855,
      "▁J'": 2856,
      "▁web": 2857,
      "puis": 2858,
      "nah": 2859,
      "AR": 2860,
      "▁sé": 2861,
      "AN": 2862,
      "▁alles": 2863,
      "ables": 2864,
      "▁2018": 2865,
      "▁donde": 2866,
      "▁lleg": 2867,
      "▁dom": 2868,
      "▁social": 2869,
      "▁those": 2870,
      "da": 2871,
      "▁Min": 2872,
      "▁Go": 2873,
      "▁ven": 2874,
      "▁bra": 2875,
      "vo": 2876,
      "▁rég": 2877,
      "▁comment": 2878,
      "▁Bl": 2879,
      "jours": 2880,
      "ización": 2881,
      "yp": 2882,
      "ho": 2883,
      "ge,": 2884,
      "▁2.": 2885,
      "▁partic": 2886,
      "▁fois": 2887,
      "ages": 2888,
      "▁being": 2889,
      "▁moins": 2890,
      "▁Da": 2891,
      "▁tem": 2892,
      "▁avoir": 2893,
      "▁moi": 2894,
      "ie,": 2895,
      "ates": 2896,
      "mas": 2897,
      "rech": 2898,
      "tica": 2899,
      "uir": 2900,
      "▁conn": 2901,
      "ista": 2902,
      "ed,": 2903,
      "ativ": 2904,
      "▁empres": 2905,
      "▁permet": 2906,
      "▁wirk": 2907,
      "▁own": 2908,
      "▁product": 2909,
      "▁entr": 2910,
      "▁où": 2911,
      "▁Co": 2912,
      "▁tiempo": 2913,
      "itiv": 2914,
      "▁Bet": 2915,
      "ana": 2916,
      "▁inform": 2917,
      "▁uno": 2918,
      "▁aller": 2919,
      "úbl": 2920,
      "isp": 2921,
      "▁gén": 2922,
      "▁Aut": 2923,
      "ément": 2924,
      "ating": 2925,
      "▁Fl": 2926,
      "so": 2927,
      "bers": 2928,
      "istr": 2929,
      "ements": 2930,
      "aba": 2931,
      "▁m'": 2932,
      "▁d’une": 2933,
      "ying": 2934,
      "▁beg": 2935,
      "▁gesch": 2936,
      "▁ci": 2937,
      "▁Land": 2938,
      "mpre": 2939,
      "▁Vous": 2940,
      "▁Ma": 2941,
      "tem": 2942,
      "▁coup": 2943,
      "de,": 2944,
      "▁mayor": 2945,
      "▁histor": 2946,
      "▁tener": 2947,
      "▁Pol": 2948,
      "▁bereit": 2949,
      "ié": 2950,
      "ugar": 2951,
      "▁abs": 2952,
      "▁Sta": 2953,
      "ict": 2954,
      "ato": 2955,
      "igkeit": 2956,
      "▁qual": 2957,
      "▁soit": 2958,
      "ado,": 2959,
      "te.\n": 2960,
      "▁sm": 2961,
      "▁still": 2962,
      "z-": 2963,
      "▁llev": 2964,
      "▁respons": 2965,
      "▁prote": 2966,
      "ches": 2967,
      "▁final": 2968,
      "iones": 2969,
      "self": 2970,
      "iet": 2971,
      "▁fut": 2972,
      "osten": 2973,
      "iar": 2974,
      "▁happ": 2975,
      "▁hace": 2976,
      "ines": 2977,
      "▁lang": 2978,
      "ivid": 2979,
      "atr": 2980,
      "halten": 2981,
      "ism": 2982,
      "urg": 2983,
      "▁dej": 2984,
      "▁pouv": 2985,
      "ps": 2986,
      "▁meine": 2987,
      "coup": 2988,
      "▁There": 2989,
      "▁toujours": 2990,
      "ought": 2991,
      "▁Vers": 2992,
      "abei": 2993,
      "tige": 2994,
      "conom": 2995,
      "aff": 2996,
      "▁pay": 2997,
      "▁mu": 2998,
      "OS": 2999,
      "▁phot": 3000,
      "▁servici": 3001,
      "lung": 3002,
      "wick": 3003,
      "idos": 3004,
      "▁sens": 3005,
      "pond": 3006,
      "ede": 3007,
      "an,": 3008,
      "▁exc": 3009,
      "▁litt": 3010,
      "▁hin": 3011,
      "-d": 3012,
      "opp": 3013,
      "▁point": 3014,
      "eter": 3015,
      "▁total": 3016,
      "▁zwe": 3017,
      "anta": 3018,
      "▁mé": 3019,
      "▁lot": 3020,
      "▁fon": 3021,
      "rait": 3022,
      "▁fra": 3023,
      "▁avait": 3024,
      "ved": 3025,
      "ool": 3026,
      "▁ét": 3027,
      "▁bit": 3028,
      "ser": 3029,
      "▁Lo": 3030,
      "ieux": 3031,
      "▁stud": 3032,
      "▁polit": 3033,
      "▁viele": 3034,
      "▁sor": 3035,
      "ähl": 3036,
      "hand": 3037,
      "▁cou": 3038,
      "▁pers": 3039,
      "usammen": 3040,
      "ward": 3041,
      "▁fl": 3042,
      "▁personal": 3043,
      "öff": 3044,
      "▁mas": 3045,
      "-P": 3046,
      "bo": 3047,
      "▁obje": 3048,
      "▁Ho": 3049,
      "▁made": 3050,
      "▁present": 3051,
      "▁ú": 3052,
      "▁100": 3053,
      "IN": 3054,
      "▁avant": 3055,
      "cas": 3056,
      "▁certain": 3057,
      "▁$": 3058,
      "▁dit": 3059,
      "▁trop": 3060,
      "▁dispos": 3061,
      "▁rem": 3062,
      "▁'": 3063,
      "unto": 3064,
      "ientes": 3065,
      "AS": 3066,
      "contr": 3067,
      "isse": 3068,
      "▁especial": 3069,
      "rei": 3070,
      "ität": 3071,
      "ierung": 3072,
      "▁Daten": 3073,
      "▁199": 3074,
      "▁dép": 3075,
      "▁Is": 3076,
      "icos": 3077,
      "▁sais": 3078,
      "▁Nous": 3079,
      "as.": 3080,
      "atis": 3081,
      "▁red": 3082,
      "▁qu’il": 3083,
      "▁dern": 3084,
      "▁doc": 3085,
      "▁ohne": 3086,
      "ific": 3087,
      "▁Deutsch": 3088,
      "ium": 3089,
      "fern": 3090,
      "▁sc": 3091,
      "illa": 3092,
      "▁L’": 3093,
      "▁mismo": 3094,
      "ald": 3095,
      "▁ton": 3096,
      "▁comun": 3097,
      "▁Sin": 3098,
      "▁US": 3099,
      "▁hal": 3100,
      "▁Gen": 3101,
      "▁consider": 3102,
      "▁Ger": 3103,
      "▁;": 3104,
      "minist": 3105,
      "laub": 3106,
      "ères": 3107,
      "zie": 3108,
      "ütz": 3109,
      "▁toute": 3110,
      "▁Reg": 3111,
      "▁mucho": 3112,
      "▁come": 3113,
      "-1": 3114,
      "iens": 3115,
      "▁seine": 3116,
      "▁Hand": 3117,
      "äre": 3118,
      "ían": 3119,
      "-t": 3120,
      "▁voir": 3121,
      "ious": 3122,
      "▁beaucoup": 3123,
      "▁fal": 3124,
      "▁weil": 3125,
      "▁ayud": 3126,
      "por": 3127,
      "▁Über": 3128,
      "▁d'une": 3129,
      "▁Zu": 3130,
      "ließ": 3131,
      "▁tim": 3132,
      "lin": 3133,
      "▁Jahren": 3134,
      "▁information": 3135,
      "▁post": 3136,
      "▁quelques": 3137,
      "acht": 3138,
      "reib": 3139,
      "▁cualquier": 3140,
      "▁24": 3141,
      "▁là": 3142,
      "▁What": 3143,
      "▁chang": 3144,
      "▁Teil": 3145,
      "▁cela": 3146,
      "r.": 3147,
      "-B": 3148,
      "▁algo": 3149,
      "ahre": 3150,
      "▁gran": 3151,
      "y.\n": 3152,
      "weise": 3153,
      "▁rien": 3154,
      "▁desar": 3155,
      "ly,": 3156,
      "▁love": 3157,
      "let": 3158,
      "30": 3159,
      "ving": 3160,
      "▁someth": 3161,
      "iver": 3162,
      "▁possible": 3163,
      "ude": 3164,
      "▁profession": 3165,
      "halb": 3166,
      "▁little": 3167,
      "ición": 3168,
      "ogra": 3169,
      "▁50": 3170,
      "unde": 3171,
      "ull": 3172,
      "esse": 3173,
      "▁2017": 3174,
      "▁got": 3175,
      "▁bre": 3176,
      "▁gleich": 3177,
      "▁siempre": 3178,
      "anci": 3179,
      "▁Produ": 3180,
      "tivo": 3181,
      "▁qué": 3182,
      "▁disc": 3183,
      "uit": 3184,
      "▁\"I": 3185,
      "lex": 3186,
      "était": 3187,
      "oin": 3188,
      "▁ej": 3189,
      "▁möglich": 3190,
      "▁lors": 3191,
      "▁sera": 3192,
      "▁quier": 3193,
      "▁They": 3194,
      "▁mak": 3195,
      "▁sea": 3196,
      "▁év": 3197,
      "▁minut": 3198,
      "▁Tra": 3199,
      "▁eigen": 3200,
      "lass": 3201,
      "▁Med": 3202,
      "reg": 3203,
      "ken": 3204,
      "▁werden.": 3205,
      "eng": 3206,
      "▁hatte": 3207,
      "crip": 3208,
      "▁están": 3209,
      "ation,": 3210,
      "▁möch": 3211,
      "port": 3212,
      "▁years": 3213,
      "▁enf": 3214,
      "unque": 3215,
      "▁durante": 3216,
      "▁sous": 3217,
      "▁C'est": 3218,
      "▁inc": 3219,
      "▁vida": 3220,
      "▁sondern": 3221,
      "acc": 3222,
      "▁individ": 3223,
      "inal": 3224,
      "▁andere": 3225,
      "acional": 3226,
      "▁lugar": 3227,
      "▁lim": 3228,
      "▁información": 3229,
      "▁alors": 3230,
      "▁Euro": 3231,
      "▁show": 3232,
      "▁feel": 3233,
      "udad": 3234,
      "▁life": 3235,
      "▁How": 3236,
      "esser": 3237,
      "OR": 3238,
      "ipp": 3239,
      "”,": 3240,
      "▁Grund": 3241,
      "▁effe": 3242,
      "dr": 3243,
      "▁Lie": 3244,
      "▁difer": 3245,
      "▁après": 3246,
      "▁Ste": 3247,
      "▁tour": 3248,
      "▁don't": 3249,
      "jà": 3250,
      "ichte": 3251,
      "▁versch": 3252,
      "gesch": 3253,
      "ather": 3254,
      "ump": 3255,
      "e.": 3256,
      "nehmen": 3257,
      "▁Inter": 3258,
      "▁autor": 3259,
      "▁Para": 3260,
      "▁conv": 3261,
      "adt": 3262,
      "▁result": 3263,
      "orm": 3264,
      "▁depuis": 3265,
      "▁set": 3266,
      "▁solo": 3267,
      "▁vi": 3268,
      "▁contre": 3269,
      "▁sure": 3270,
      "▁rel": 3271,
      "▁pueden": 3272,
      "entro": 3273,
      "▁cla": 3274,
      "alth": 3275,
      "▁propos": 3276,
      "▁würde": 3277,
      "ös": 3278,
      "ities": 3279,
      "▁Chr": 3280,
      "▁reci": 3281,
      "]\n": 3282,
      "imm": 3283,
      "▁I'm": 3284,
      "▁letz": 3285,
      "ano": 3286,
      "▁prob": 3287,
      "cta": 3288,
      "▁wirklich": 3289,
      "▁era": 3290,
      "bes": 3291,
      "ia,": 3292,
      "▁suiv": 3293,
      "▁never": 3294,
      "//": 3295,
      "▁sim": 3296,
      "ks": 3297,
      "▁n'est": 3298,
      "ätz": 3299,
      "idas": 3300,
      "▁something": 3301,
      "bens": 3302,
      "▁cuenta": 3303,
      "▁mater": 3304,
      "ways": 3305,
      "▁beim": 3306,
      "▁ils": 3307,
      "▁book": 3308,
      "▁jam": 3309,
      "▁Ihnen": 3310,
      "▁Für": 3311,
      "▁bu": 3312,
      "▁erst": 3313,
      "▁solu": 3314,
      "▁dont": 3315,
      "▁ris": 3316,
      "▁ju": 3317,
      "▁few": 3318,
      "▁monde": 3319,
      "▁constru": 3320,
      "▁Sh": 3321,
      "▁world": 3322,
      "▁Kinder": 3323,
      "lectr": 3324,
      "pre": 3325,
      "▁differ": 3326,
      "▁Une": 3327,
      "▁Bei": 3328,
      "CI": 3329,
      "ürlich": 3330,
      "ters": 3331,
      "ement,": 3332,
      "▁vari": 3333,
      "rä": 3334,
      "▁déjà": 3335,
      "▁same": 3336,
      "▁corre": 3337,
      "▁last": 3338,
      "ize": 3339,
      "▁ange": 3340,
      "▁enc": 3341,
      "▁fer": 3342,
      "ren": 3343,
      "▁21": 3344,
      "blig": 3345,
      "▁child": 3346,
      "endant": 3347,
      "▁Fall": 3348,
      "ktion": 3349,
      "▁compl": 3350,
      "▁ple": 3351,
      "dig": 3352,
      "▁zwei": 3353,
      "insi": 3354,
      "war": 3355,
      "uelle": 3356,
      "▁conten": 3357,
      "▁fact": 3358,
      "▁particip": 3359,
      "▁around": 3360,
      "▁At": 3361,
      "▁ze": 3362,
      "ómo": 3363,
      "▁sigu": 3364,
      "▁play": 3365,
      "’re": 3366,
      "▁defin": 3367,
      "▁año": 3368,
      ".”\n": 3369,
      "▁dieses": 3370,
      "▁supp": 3371,
      "▁ble": 3372,
      "pris": 3373,
      "▁trad": 3374,
      "imiento": 3375,
      "eder": 3376,
      "▁favor": 3377,
      "ira": 3378,
      "▁úl": 3379,
      "▁important": 3380,
      "ólo": 3381,
      "▁Deutschland": 3382,
      "▁donn": 3383,
      "▁tak": 3384,
      "ij": 3385,
      "▁eso": 3386,
      "ieden": 3387,
      "▁seit": 3388,
      "undes": 3389,
      "icas": 3390,
      "▁business": 3391,
      "▁gef": 3392,
      "▁Internet": 3393,
      "▁Thank": 3394,
      "bor": 3395,
      "▁put": 3396,
      "▁tan": 3397,
      "▁vou": 3398,
      "▁amb": 3399,
      "▁estud": 3400,
      "▁enti": 3401,
      "▁C’est": 3402,
      "▁menos": 3403,
      "▁Them": 3404,
      "▁&": 3405,
      "▁cha": 3406,
      "cted": 3407,
      "ßer": 3408,
      "amm": 3409,
      "▁toutes": 3410,
      "▁cré": 3411,
      "▁poco": 3412,
      "▁agr": 3413,
      "▁sup": 3414,
      "▁pes": 3415,
      "▁stand": 3416,
      "▁einmal": 3417,
      "▁things": 3418,
      "read": 3419,
      "ños": 3420,
      "▁Tod": 3421,
      "für": 3422,
      "▁rev": 3423,
      "▁service": 3424,
      "adores": 3425,
      "▁follow": 3426,
      "pués": 3427,
      "▁dig": 3428,
      "▁dere": 3429,
      "tin": 3430,
      "▁nouv": 3431,
      "▁anim": 3432,
      "▁Jahre": 3433,
      "▁otro": 3434,
      "▁Auch": 3435,
      "▁ihn": 3436,
      "ículo": 3437,
      "▁recon": 3438,
      "h,": 3439,
      "▁That": 3440,
      "-m": 3441,
      ".com": 3442,
      "ßen": 3443,
      "ter,": 3444,
      "▁cir": 3445,
      "▁schn": 3446,
      "▁pop": 3447,
      "▁Elle": 3448,
      "▁Sy": 3449,
      "▁inf": 3450,
      "▁mot": 3451,
      "▁too": 3452,
      "▁einz": 3453,
      "▁ese": 3454,
      "ject": 3455,
      "crib": 3456,
      "trag": 3457,
      "ôt": 3458,
      "ww.": 3459,
      "▁éta": 3460,
      "▁gl": 3461,
      "▁2016": 3462,
      "oss": 3463,
      "▁fem": 3464,
      "er.\n": 3465,
      "▁unsere": 3466,
      "ry": 3467,
      "▁dazu": 3468,
      "▁simple": 3469,
      "se,": 3470,
      "▁estar": 3471,
      "▁tar": 3472,
      "▁belie": 3473,
      "▁sex": 3474,
      "▁leurs": 3475,
      "▁tend": 3476,
      "su": 3477,
      "▁X": 3478,
      "▁méd": 3479,
      "▁primer": 3480,
      "▁sec": 3481,
      "temp": 3482,
      "▁ask": 3483,
      "▁New": 3484,
      "ceso": 3485,
      "▁heute": 3486,
      "folg": 3487,
      "▁care": 3488,
      "ée,": 3489,
      "ent,": 3490,
      "▁cult": 3491,
      "▁werden,": 3492,
      "ha": 3493,
      "▁Car": 3494,
      "▁id": 3495,
      "ever": 3496,
      "▁Eine": 3497,
      "▁sido": 3498,
      "atch": 3499,
      "▁•": 3500,
      "uck": 3501,
      "▁todas": 3502,
      "▁interes": 3503,
      "entre": 3504,
      "▁bring": 3505,
      "gem": 3506,
      "ientos": 3507,
      "amen": 3508,
      "▁dés": 3509,
      "ers,": 3510,
      "://": 3511,
      "▁continu": 3512,
      "▁oper": 3513,
      "po": 3514,
      "▁ainsi": 3515,
      "▁To": 3516,
      "▁poder": 3517,
      "rif": 3518,
      "óm": 3519,
      "▁otros": 3520,
      "▁n’est": 3521,
      "ware": 3522,
      "▁3.": 3523,
      "▁esper": 3524,
      "aiss": 3525,
      "▁apl": 3526,
      "lag": 3527,
      "▁públ": 3528,
      "omp": 3529,
      "bres": 3530,
      "▁*": 3531,
      "aum": 3532,
      "abor": 3533,
      "uc": 3534,
      "▁high": 3535,
      "▁L'": 3536,
      "▁incre": 3537,
      "▁sem": 3538,
      "▁don’t": 3539,
      "▁keep": 3540,
      "▁comb": 3541,
      "iedad": 3542,
      "AL": 3543,
      "▁encu": 3544,
      "unter": 3545,
      "▁vraiment": 3546,
      "▁estos": 3547,
      "cond": 3548,
      "ête": 3549,
      "▁Spiel": 3550,
      "▁fonction": 3551,
      "▁mag": 3552,
      "ory": 3553,
      "▁friend": 3554,
      "▁Mal": 3555,
      "▁always": 3556,
      "ason": 3557,
      "▁partir": 3558,
      "▁sowie": 3559,
      "adre": 3560,
      "▁país": 3561,
      "▁decir": 3562,
      "sy": 3563,
      "▁home": 3564,
      "arm": 3565,
      "▁petit": 3566,
      "scheid": 3567,
      "▁(2": 3568,
      "▁neue": 3569,
      "▁konn": 3570,
      "▁Res": 3571,
      "▁l’é": 3572,
      "▁voy": 3573,
      "roll": 3574,
      "▁ciudad": 3575,
      "hen,": 3576,
      "iner": 3577,
      "▁must": 3578,
      "TI": 3579,
      "▁sto": 3580,
      "▁thing": 3581,
      "zahl": 3582,
      "▁zurück": 3583,
      "ine,": 3584,
      "▁nuestro": 3585,
      "▁control": 3586,
      "▁oblig": 3587,
      "sh": 3588,
      "essen": 3589,
      "leicht": 3590,
      "▁might": 3591,
      "▁caus": 3592,
      "▁fais": 3593,
      "▁while": 3594,
      "▁siste": 3595,
      "▁caso": 3596,
      "kte": 3597,
      "▁appl": 3598,
      "▁bene": 3599,
      "▁bar": 3600,
      "stand": 3601,
      "▁seem": 3602,
      "▁bereits": 3603,
      "urz": 3604,
      "▁natur": 3605,
      "book": 3606,
      "▁Pu": 3607,
      "isc": 3608,
      "50": 3609,
      "vous": 3610,
      "cept": 3611,
      "▁sollte": 3612,
      "▁différ": 3613,
      "tion,": 3614,
      "▁travail": 3615,
      "ibu": 3616,
      "▁pal": 3617,
      "▁Welt": 3618,
      "▁embar": 3619,
      "▁condition": 3620,
      "▁visit": 3621,
      "ican": 3622,
      "▁zwischen": 3623,
      "dit": 3624,
      "pf": 3625,
      "▁Ur": 3626,
      "teurs": 3627,
      "▁I’m": 3628,
      "▁Hier": 3629,
      "▁Mo": 3630,
      "▁top": 3631,
      "▁importante": 3632,
      "lection": 3633,
      "▁She": 3634,
      "In": 3635,
      "▁port": 3636,
      "anç": 3637,
      "▁autre": 3638,
      "äll": 3639,
      "▁préc": 3640,
      "▁Uhr": 3641,
      "▁2015": 3642,
      "▁client": 3643,
      "▁used": 3644,
      "▁ersten": 3645,
      "▁antes": 3646,
      "wort": 3647,
      "▁appro": 3648,
      "▁eas": 3649,
      "wir": 3650,
      "änder": 3651,
      "ena": 3652,
      "terior": 3653,
      "▁jamais": 3654,
      "▁mor": 3655,
      "▁réal": 3656,
      "▁22": 3657,
      "-il": 3658,
      "uv": 3659,
      "▁besch": 3660,
      "▁aff": 3661,
      "▁under": 3662,
      "▁Ph": 3663,
      "▁nouve": 3664,
      "▁local": 3665,
      "▁extra": 3666,
      "▁Pero": 3667,
      "▁imag": 3668,
      "▁normal": 3669,
      "▁Cl": 3670,
      "▁each": 3671,
      "bsite": 3672,
      "▁»\n": 3673,
      "▁rais": 3674,
      "▁déb": 3675,
      "▁stell": 3676,
      "▁doit": 3677,
      "▁werden.\n": 3678,
      "ati": 3679,
      "▁á": 3680,
      "▁présent": 3681,
      "asse": 3682,
      "net": 3683,
      "▁¡": 3684,
      "▁four": 3685,
      "oire": 3686,
      "▁compar": 3687,
      "lage": 3688,
      "▁Dans": 3689,
      "ctive": 3690,
      "▁via": 3691,
      "▁bou": 3692,
      "▁better": 3693,
      "ía,": 3694,
      "▁baj": 3695,
      "▁cle": 3696,
      "▁human": 3697,
      "gen.": 3698,
      "dien": 3699,
      "▁eng": 3700,
      "termin": 3701,
      "▁diesen": 3702,
      "ancia": 3703,
      "▁inves": 3704,
      "miento": 3705,
      "igne": 3706,
      "▁found": 3707,
      "▁deut": 3708,
      "▁dabei": 3709,
      "▁‘": 3710,
      "éra": 3711,
      "▁trabajo": 3712,
      "▁puis": 3713,
      "▁autres": 3714,
      "▁había": 3715,
      "ce,": 3716,
      "▁mind": 3717,
      "▁My": 3718,
      "'re": 3719,
      "mail": 3720,
      "▁nichts": 3721,
      "öglichkeit": 3722,
      "dic": 3723,
      "▁profes": 3724,
      "ness": 3725,
      "▁j’ai": 3726,
      "org": 3727,
      "▁debe": 3728,
      "▁it’s": 3729,
      "oles": 3730,
      "geben": 3731,
      "-T": 3732,
      "ung.": 3733,
      "▁tipo": 3734,
      "ucht": 3735,
      "cé": 3736,
      "velop": 3737,
      "ander": 3738,
      "▁otra": 3739,
      "▁Son": 3740,
      "▁Str": 3741,
      "▁market": 3742,
      "▁it's": 3743,
      "▁%": 3744,
      "under": 3745,
      "row": 3746,
      "ibles": 3747,
      "▁esp": 3748,
      "klär": 3749,
      "imin": 3750,
      "▁projet": 3751,
      "ets": 3752,
      "▁égal": 3753,
      "▁tre": 3754,
      "▁htt": 3755,
      "hui": 3756,
      "▁vid": 3757,
      "▁Diese": 3758,
      "IS": 3759,
      "“\n": 3760,
      "▁nie": 3761,
      "▁compan": 3762,
      "▁pris": 3763,
      "▁días": 3764,
      "▁sour": 3765,
      "▁estable": 3766,
      "rage": 3767,
      "rá": 3768,
      "aria": 3769,
      "▁chose": 3770,
      "▁Information": 3771,
      "▁Ro": 3772,
      "▁genau": 3773,
      "▁J’": 3774,
      "▁leg": 3775,
      "▁dav": 3776,
      "ruck": 3777,
      "table": 3778,
      "weg": 3779,
      "ouse": 3780,
      "▁proye": 3781,
      "▁/": 3782,
      "▁dra": 3783,
      "▁cono": 3784,
      "▁start": 3785,
      "ffen": 3786,
      "me,": 3787,
      "▁pon": 3788,
      "ed.": 3789,
      "▁nuestra": 3790,
      "weit": 3791,
      "▁the\n": 3792,
      "▁klein": 3793,
      "▁month": 3794,
      "▁Bundes": 3795,
      "or,": 3796,
      "cret": 3797,
      "▁ist.": 3798,
      "olle": 3799,
      "▁deber": 3800,
      "venir": 3801,
      "äng": 3802,
      "▁éc": 3803,
      "▁waren": 3804,
      "ela": 3805,
      "▁schnell": 3806,
      "▁coun": 3807,
      "▁Buch": 3808,
      "▁event": 3809,
      "▁sent": 3810,
      "▁allem": 3811,
      "▁pag": 3812,
      "ße": 3813,
      "ance,": 3814,
      ".000": 3815,
      "▁manera": 3816,
      "▁tal": 3817,
      "ur,": 3818,
      "tico": 3819,
      "ilt": 3820,
      "-F": 3821,
      "▁tienen": 3822,
      "▁ihm": 3823,
      "▁sólo": 3824,
      "weis": 3825,
      "▁tanto": 3826,
      "ahn": 3827,
      "ara": 3828,
      "▁jou": 3829,
      "view": 3830,
      "▁realiz": 3831,
      "rank": 3832,
      "ác": 3833,
      "ación,": 3834,
      "erstand": 3835,
      "▁Mus": 3836,
      "▁Leben": 3837,
      "▁give": 3838,
      "▁App": 3839,
      "éta": 3840,
      ".0": 3841,
      "uell": 3842,
      "▁Do": 3843,
      "hol": 3844,
      "▁prev": 3845,
      "ticas": 3846,
      "▁fund": 3847,
      "ministra": 3848,
      "ua": 3849,
      "ott": 3850,
      "▁disp": 3851,
      "▁Famil": 3852,
      "rate": 3853,
      "▁Stud": 3854,
      "rir": 3855,
      "▁word": 3856,
      "▁40": 3857,
      "clus": 3858,
      "▁.\n": 3859,
      "▁log": 3860,
      "sta": 3861,
      "▁War": 3862,
      "▁Als": 3863,
      "ten.\n": 3864,
      "▁mundo": 3865,
      "▁wäre": 3866,
      "al.\n": 3867,
      "▁hät": 3868,
      "iod": 3869,
      "▁encontr": 3870,
      "▁sk": 3871,
      "ivel": 3872,
      "▁Ob": 3873,
      "▁euch": 3874,
      "▁quien": 3875,
      "ommes": 3876,
      "▁nada": 3877,
      "▁Cu": 3878,
      "▁Jo": 3879,
      "▁Can": 3880,
      "ing.\n": 3881,
      "▁personnes": 3882,
      "qu'": 3883,
      "bild": 3884,
      "▁tun": 3885,
      "-K": 3886,
      "▁Ter": 3887,
      "▁ess": 3888,
      "▁unserer": 3889,
      "pression": 3890,
      "▁habit": 3891,
      "ieurs": 3892,
      "▁Sal": 3893,
      "▁thought": 3894,
      "abr": 3895,
      "▁momento": 3896,
      "▁Rech": 3897,
      "▁learn": 3898,
      "cle": 3899,
      "aben": 3900,
      "▁llam": 3901,
      "ure,": 3902,
      "▁Europ": 3903,
      "▁preg": 3904,
      "▁esto": 3905,
      "z-vous": 3906,
      "uego": 3907,
      "▁tit": 3908,
      "▁process": 3909,
      "halt": 3910,
      "▁different": 3911,
      "▁industr": 3912,
      "▁call": 3913,
      "▁Per": 3914,
      "▁divers": 3915,
      "▁Haus": 3916,
      "▁writ": 3917,
      "▁tes": 3918,
      "▁mois": 3919,
      "▁Art": 3920,
      "mittel": 3921,
      "▁iden": 3922,
      "▁base": 3923,
      "▁eu": 3924,
      "fort": 3925,
      "▁sit": 3926,
      "év": 3927,
      "idad,": 3928,
      "ält": 3929,
      "cidad": 3930,
      "▁génér": 3931,
      "mb": 3932,
      "▁que,": 3933,
      "ismo": 3934,
      "▁m’": 3935,
      "▁probl": 3936,
      "▁orig": 3937,
      "▁suc": 3938,
      "▁absol": 3939,
      "▁respe": 3940,
      "zeich": 3941,
      "ispiel": 3942,
      "▁également": 3943,
      "▁pense": 3944,
      "▁When": 3945,
      "forder": 3946,
      "▁Don": 3947,
      "▁run": 3948,
      "▁bie": 3949,
      "▁another": 3950,
      "▁online": 3951,
      "wh": 3952,
      "cios": 3953,
      "▁document": 3954,
      "▁2014": 3955,
      "▁machen": 3956,
      "▁cet": 3957,
      "▁polí": 3958,
      "▁wom": 3959,
      "▁fond": 3960,
      "ey": 3961,
      "▁23": 3962,
      "hör": 3963,
      "▁través": 3964,
      "▁Gra": 3965,
      "▁Que": 3966,
      "uten": 3967,
      "▁repr": 3968,
      "innen": 3969,
      "”.\n": 3970,
      "▁poin": 3971,
      "▁Tu": 3972,
      "istas": 3973,
      "RE": 3974,
      "agement": 3975,
      "▁giv": 3976,
      "ingt": 3977,
      "ume": 3978,
      "▁without": 3979,
      "schl": 3980,
      "▁blo": 3981,
      "äß": 3982,
      "▁wohl": 3983,
      "▁second": 3984,
      "ited": 3985,
      "▁jeder": 3986,
      "▁next": 3987,
      "▁wichtig": 3988,
      "äuf": 3989,
      "▁rich": 3990,
      "▁bonne": 3991,
      "asser": 3992,
      "▁dort": 3993,
      "tido": 3994,
      "tific": 3995,
      "▁ach": 3996,
      "tention": 3997,
      "▁ü": 3998,
      "▁natürlich": 3999,
      "ires": 4000,
      "▁perm": 4001,
      "▁grande": 4002,
      "▁mujer": 4003,
      "▁dispon": 4004,
      "aden": 4005,
      "▁Univers": 4006,
      "immer": 4007,
      "ja": 4008,
      "▁camp": 4009,
      "st,": 4010,
      "▁journ": 4011,
      "▁Geb": 4012,
      "▁Viel": 4013,
      "\".\n": 4014,
      "▁después": 4015,
      "ody": 4016,
      "▁inte": 4017,
      "ada,": 4018,
      "▁prendre": 4019,
      "▁far": 4020,
      "▁personne": 4021,
      "▁aunque": 4022,
      "▁beste": 4023,
      "▁system": 4024,
      "ande": 4025,
      "alla": 4026,
      "▁Mein": 4027,
      "▁gerne": 4028,
      "▁cab": 4029,
      "vern": 4030,
      "▁mess": 4031,
      "▁class": 4032,
      "▁ca": 4033,
      "▁seiner": 4034,
      "inge": 4035,
      "▁tell": 4036,
      "▁design": 4037,
      "▁rece": 4038,
      "▁face": 4039,
      "▁näch": 4040,
      "elo": 4041,
      "▁dafür": 4042,
      "▁concern": 4043,
      "lle": 4044,
      "▁Serv": 4045,
      "▁tus": 4046,
      "arte": 4047,
      "ween": 4048,
      "▁mieux": 4049,
      "▁schön": 4050,
      "▁esa": 4051,
      "aupt": 4052,
      "▁os": 4053,
      "z,": 4054,
      "▁chaque": 4055,
      "TE": 4056,
      "-s": 4057,
      "▁segur": 4058,
      "▁nivel": 4059,
      "▁weiß": 4060,
      "io,": 4061,
      "velopp": 4062,
      "omb": 4063,
      "▁kommt": 4064,
      "ies,": 4065,
      "vier": 4066,
      "▁viol": 4067,
      "tima": 4068,
      "▁chez": 4069,
      "hip": 4070,
      "▁müssen": 4071,
      "▁big": 4072,
      "ançais": 4073,
      "aient": 4074,
      "▁autom": 4075,
      "uß": 4076,
      "ype": 4077,
      "uerdo": 4078,
      "ptem": 4079,
      "▁vide": 4080,
      "▁support": 4081,
      "▁ander": 4082,
      "cent": 4083,
      "▁gest": 4084,
      "▁repres": 4085,
      "▁includ": 4086,
      "▁savoir": 4087,
      "▁turn": 4088,
      "ment,": 4089,
      "▁lí": 4090,
      "ms": 4091,
      "▁seman": 4092,
      "enne": 4093,
      "▁Una": 4094,
      "jourd": 4095,
      "ktiv": 4096,
      "▁anal": 4097,
      "ir,": 4098,
      "▁mettre": 4099,
      "▁Stra": 4100,
      "ogle": 4101,
      "el,": 4102,
      "ál": 4103,
      "▁Ac": 4104,
      "▁able": 4105,
      "ché": 4106,
      "ährend": 4107,
      "go,": 4108,
      "▁contact": 4109,
      "-D": 4110,
      "ments": 4111,
      "▁sum": 4112,
      "itos": 4113,
      "équ": 4114,
      "▁corres": 4115,
      "▁verdad": 4116,
      "autres": 4117,
      "▁sujet": 4118,
      "äd": 4119,
      "acter": 4120,
      "anti": 4121,
      "bed": 4122,
      "▁redu": 4123,
      "▁develop": 4124,
      "▁regard": 4125,
      "▁both": 4126,
      "▁será": 4127,
      "ama": 4128,
      "alle": 4129,
      "tschaft": 4130,
      "bert": 4131,
      "day": 4132,
      "▁ofre": 4133,
      "▁bed": 4134,
      "▁haben,": 4135,
      "ique,": 4136,
      "nung": 4137,
      "ower": 4138,
      "fang": 4139,
      "▁head": 4140,
      "ature": 4141,
      "▁apro": 4142,
      "isé": 4143,
      "▁ihrer": 4144,
      "gang": 4145,
      "chos": 4146,
      "AD": 4147,
      "▁group": 4148,
      "▁ben": 4149,
      "▁emplo": 4150,
      "▁beh": 4151,
      "▁crit": 4152,
      "▁health": 4153,
      "▁termin": 4154,
      "▁inici": 4155,
      "▁permit": 4156,
      "ingen": 4157,
      "▁lead": 4158,
      "▁fall": 4159,
      "▁obten": 4160,
      "▁#": 4161,
      "▁unos": 4162,
      "▁compte": 4163,
      "gest": 4164,
      "▁estas": 4165,
      "rat": 4166,
      "▁neuen": 4167,
      "clar": 4168,
      "▁hard": 4169,
      "▁direct": 4170,
      "berg": 4171,
      "ently": 4172,
      "igt": 4173,
      "▁otras": 4174,
      "ünd": 4175,
      "UR": 4176,
      "▁Gew": 4177,
      "▁talk": 4178,
      "kommen": 4179,
      "▁steht": 4180,
      "▁qued": 4181,
      "▁sac": 4182,
      "▁“I": 4183,
      "▁Bild": 4184,
      "▁decis": 4185,
      "lob": 4186,
      "“,": 4187,
      "▁vac": 4188,
      "▁why": 4189,
      "▁peque": 4190,
      "gur": 4191,
      "▁ici": 4192,
      "▁avez": 4193,
      "ides": 4194,
      "▁Ende": 4195,
      "▁idea": 4196,
      "kun": 4197,
      "▁cin": 4198,
      "▁ear": 4199,
      "▁Inst": 4200,
      "▁Hol": 4201,
      "▁kind": 4202,
      "ás,": 4203,
      "▁quer": 4204,
      "▁away": 4205,
      "▁finden": 4206,
      "▁tres": 4207,
      "tation": 4208,
      "▁jeden": 4209,
      "▁Fin": 4210,
      "▁services": 4211,
      "-L": 4212,
      "ouvez": 4213,
      "umpl": 4214,
      "▁vais": 4215,
      "▁Dis": 4216,
      "Un": 4217,
      "IC": 4218,
      "▁sein,": 4219,
      "▁investig": 4220,
      "▁sí": 4221,
      "▁page": 4222,
      "unkt": 4223,
      "zen": 4224,
      "▁cosas": 4225,
      "gent": 4226,
      "▁Seit": 4227,
      "aille": 4228,
      "▁2013": 4229,
      "ischer": 4230,
      "icult": 4231,
      "nement": 4232,
      "▁retr": 4233,
      "i.": 4234,
      "enci": 4235,
      "▁grup": 4236,
      "és,": 4237,
      "▁\"T": 4238,
      "qu’": 4239,
      "schaf": 4240,
      "prend": 4241,
      "üh": 4242,
      "▁etc.": 4243,
      "emble": 4244,
      "ban": 4245,
      "▁refer": 4246,
      "▁Sel": 4247,
      "isti": 4248,
      "ror": 4249,
      "▁jedoch": 4250,
      "zial": 4251,
      "▁trouver": 4252,
      "▁offer": 4253,
      "avais": 4254,
      "off": 4255,
      "▁na": 4256,
      "nehm": 4257,
      "nahme": 4258,
      "▁plusieurs": 4259,
      "▁organiz": 4260,
      "▁\"W": 4261,
      "▁camb": 4262,
      "▁sort": 4263,
      "▁nicht,": 4264,
      "▁gerade": 4265,
      "alu": 4266,
      "▁partie": 4267,
      "▁old": 4268,
      "êt": 4269,
      "▁change": 4270,
      "cula": 4271,
      "▁salud": 4272,
      "▁avons": 4273,
      "▁add": 4274,
      "▁voll": 4275,
      "▁ceux": 4276,
      "ike": 4277,
      "▁mainten": 4278,
      "▁cost": 4279,
      "▁persona": 4280,
      "▁ella": 4281,
      "▁Fahr": 4282,
      "füg": 4283,
      "▁droit": 4284,
      "ional": 4285,
      "▁def": 4286,
      "▁article": 4287,
      "ache": 4288,
      "▁fest": 4289,
      "▁Möglichkeit": 4290,
      "▁school": 4291,
      "▁train": 4292,
      "ierte": 4293,
      "▁ahora": 4294,
      "2.": 4295,
      "▁aquí": 4296,
      "▁sicher": 4297,
      "▁eben": 4298,
      "usch": 4299,
      "▁dise": 4300,
      "▁cop": 4301,
      "▁commen": 4302,
      "▁ihren": 4303,
      "▁pouvoir": 4304,
      "▁Este": 4305,
      "▁wr": 4306,
      "▁meiner": 4307,
      "▁cours": 4308,
      "iele": 4309,
      "hor": 4310,
      "▁ning": 4311,
      "▁energ": 4312,
      "u,": 4313,
      "▁Gener": 4314,
      "▁sind,": 4315,
      "▁führ": 4316,
      "/1": 4317,
      "▁wenig": 4318,
      "▁afin": 4319,
      "▁list": 4320,
      "orth": 4321,
      "▁auc": 4322,
      "▁rou": 4323,
      "ett": 4324,
      "▁bro": 4325,
      "▁chos": 4326,
      "▁eig": 4327,
      "resse": 4328,
      "▁hecho": 4329,
      "▁Amer": 4330,
      "▁peuvent": 4331,
      "▁28": 4332,
      "pend": 4333,
      "èg": 4334,
      "▁J'ai": 4335,
      "▁26": 4336,
      "cy": 4337,
      "kenn": 4338,
      "ion,": 4339,
      "erein": 4340,
      "▁suff": 4341,
      "▁looking": 4342,
      "▁Pe": 4343,
      "▁estado": 4344,
      "ús": 4345,
      "quoi": 4346,
      "▁(S": 4347,
      "▁hoy": 4348,
      "--": 4349,
      "▁particular": 4350,
      "iere": 4351,
      "▁fast": 4352,
      "▁since": 4353,
      "▁cher": 4354,
      "▁ellos": 4355,
      "óg": 4356,
      "▁moy": 4357,
      "-C": 4358,
      "▁between": 4359,
      "tout": 4360,
      "▁realizar": 4361,
      "▁pap": 4362,
      "uter": 4363,
      "▁toda": 4364,
      "▁job": 4365,
      "!!!": 4366,
      "p://": 4367,
      "▁Stadt": 4368,
      "▁§": 4369,
      "▁aliment": 4370,
      "▁financi": 4371,
      "hin": 4372,
      "▁primera": 4373,
      "gleich": 4374,
      "▁Arbeits": 4375,
      "mon": 4376,
      "iveau": 4377,
      "▁three": 4378,
      "▁Gl": 4379,
      "▁general": 4380,
      "▁fot": 4381,
      "tant": 4382,
      "▁educ": 4383,
      "▁verb": 4384,
      "▁compet": 4385,
      "cken": 4386,
      "▁dein": 4387,
      "dings": 4388,
      "▁verl": 4389,
      "ág": 4390,
      "▁nature": 4391,
      "-G": 4392,
      "▁fam": 4393,
      "▁LA": 4394,
      "▁eur": 4395,
      "▁it.": 4396,
      "amt": 4397,
      "▁Seite": 4398,
      "tice": 4399,
      "▁sistema": 4400,
      "▁though": 4401,
      "▁irgend": 4402,
      "-être": 4403,
      "▁Schw": 4404,
      "▁Comm": 4405,
      "aría": 4406,
      "aud": 4407,
      "▁Lebens": 4408,
      "▁ig": 4409,
      "▁sema": 4410,
      "▁équ": 4411,
      "▁rad": 4412,
      "zeug": 4413,
      "▁stat": 4414,
      "rollo": 4415,
      "▁nuevo": 4416,
      "▁Ö": 4417,
      "▁wurden": 4418,
      "▁27": 4419,
      "ué": 4420,
      "êtes": 4421,
      "sez": 4422,
      "can": 4423,
      "che,": 4424,
      "▁développ": 4425,
      "▁Kl": 4426,
      "▁perd": 4427,
      "itä": 4428,
      "part": 4429,
      "▁Dan": 4430,
      "▁allen": 4431,
      "tains": 4432,
      "▁1,": 4433,
      "▁déf": 4434,
      "▁198": 4435,
      "arch": 4436,
      "ager": 4437,
      "adr": 4438,
      "ably": 4439,
      "▁tras": 4440,
      "orr": 4441,
      "▁colle": 4442,
      "▁univers": 4443,
      "▁adv": 4444,
      "▁muchas": 4445,
      "isir": 4446,
      "▁demande": 4447,
      "embre": 4448,
      "nov": 4449,
      "▁Esta": 4450,
      "▁funcion": 4451,
      "iller": 4452,
      "▁4.": 4453,
      "ünf": 4454,
      "ivil": 4455,
      "gew": 4456,
      "▁Geld": 4457,
      "prise": 4458,
      "▁señ": 4459,
      "ily": 4460,
      "▁interest": 4461,
      "▁hat,": 4462,
      "▁Gem": 4463,
      "itud": 4464,
      "▁Mann": 4465,
      "ustom": 4466,
      "▁Cette": 4467,
      "▁souv": 4468,
      "tención": 4469,
      "2,": 4470,
      "▁jur": 4471,
      "▁envir": 4472,
      "licher": 4473,
      "▁premier": 4474,
      "▁gus": 4475,
      "▁spé": 4476,
      "▁recher": 4477,
      "▁obs": 4478,
      "▁pays": 4479,
      "ité,": 4480,
      "▁conven": 4481,
      "▁Sa": 4482,
      "pid": 4483,
      "et.": 4484,
      "élé": 4485,
      "▁welche": 4486,
      "▁Bere": 4487,
      "satz": 4488,
      "rich": 4489,
      "▁darauf": 4490,
      "▁31": 4491,
      "▁Ä": 4492,
      "▁open": 4493,
      "▁letzten": 4494,
      "ative": 4495,
      "▁understand": 4496,
      "ams": 4497,
      "▁Schul": 4498,
      "▁enough": 4499,
      "ends": 4500,
      "bt": 4501,
      "▁Proz": 4502,
      "▁test": 4503,
      "▁countr": 4504,
      "us,": 4505,
      "ierno": 4506,
      "▁fort": 4507,
      "inst": 4508,
      "▁(A": 4509,
      "irm": 4510,
      "▁gan": 4511,
      "schied": 4512,
      "▁zusammen": 4513,
      "bles": 4514,
      "▁mul": 4515,
      "▁decid": 4516,
      "imos": 4517,
      "▁small": 4518,
      "▁Face": 4519,
      "▁iss": 4520,
      "stütz": 4521,
      "▁vu": 4522,
      "été": 4523,
      "ron": 4524,
      "▁trois": 4525,
      "ulation": 4526,
      "richt": 4527,
      "setz": 4528,
      "▁medio": 4529,
      "▁seinen": 4530,
      "▁facil": 4531,
      "fahren": 4532,
      "▁première": 4533,
      "▁muchos": 4534,
      "▁pel": 4535,
      "iern": 4536,
      "angen": 4537,
      "añ": 4538,
      "▁kommen": 4539,
      "rez": 4540,
      "▁lu": 4541,
      "▁Mensch": 4542,
      "▁gehör": 4543,
      "▁ens": 4544,
      "▁Jul": 4545,
      "▁posible": 4546,
      "▁Bon": 4547,
      "▁Part": 4548,
      "▁bestimm": 4549,
      "▁fig": 4550,
      "▁datos": 4551,
      "▁vielen": 4552,
      "▁pér": 4553,
      "of": 4554,
      "ado.\n": 4555,
      "▁;\n": 4556,
      "▁bz": 4557,
      "util": 4558,
      "▁suite": 4559,
      "ired": 4560,
      "emplo": 4561,
      "▁jours": 4562,
      "▁sino": 4563,
      "▁juste": 4564,
      "uso": 4565,
      "falls": 4566,
      "▁record": 4567,
      "▁cómo": 4568,
      "▁60": 4569,
      "comp": 4570,
      "▁Thema": 4571,
      "kunft": 4572,
      "raft": 4573,
      "äh": 4574,
      "▁paar": 4575,
      "less": 4576,
      "fon": 4577,
      "▁ord": 4578,
      "▁ist.\n": 4579,
      "gestell": 4580,
      "eins": 4581,
      "écess": 4582,
      "jos": 4583,
      "▁Weg": 4584,
      "▁order": 4585,
      "itions": 4586,
      "joy": 4587,
      "▁lange": 4588,
      "▁pendant": 4589,
      "illes": 4590,
      "▁gente": 4591,
      "▁kurz": 4592,
      "▁merc": 4593,
      "ben,": 4594,
      "rach": 4595,
      "ata": 4596,
      "heim": 4597,
      "▁ún": 4598,
      "al.": 4599,
      "uchen": 4600,
      "ór": 4601,
      "cin": 4602,
      "öl": 4603,
      "▁nécess": 4604,
      "▁drei": 4605,
      "▁number": 4606,
      "▁pouvez": 4607,
      "▁quoi": 4608,
      "cido": 4609,
      "▁denen": 4610,
      "▁daß": 4611,
      "nisse": 4612,
      "ross": 4613,
      "▁de\n": 4614,
      "▁san": 4615,
      "haus": 4616,
      "ades": 4617,
      "ré": 4618,
      "ctif": 4619,
      "ordin": 4620,
      "▁dan": 4621,
      "▁Ha": 4622,
      "enk": 4623,
      "conóm": 4624,
      "▁Ser": 4625,
      "▁Not": 4626,
      "▁consum": 4627,
      "grund": 4628,
      "tivos": 4629,
      "▁ele": 4630,
      "▁intér": 4631,
      "▁attend": 4632,
      "bau": 4633,
      "▁Fil": 4634,
      "▁Bo": 4635,
      "änger": 4636,
      "ungen,": 4637,
      "▁dentro": 4638,
      "....\n": 4639,
      "kehr": 4640,
      "▁entsp": 4641,
      "▁adem": 4642,
      "▁free": 4643,
      "ona": 4644,
      "▁clar": 4645,
      "▁din": 4646,
      "▁artículo": 4647,
      "uff": 4648,
      "▁espa": 4649,
      "▁cat": 4650,
      "▁particul": 4651,
      "entra": 4652,
      "▁Op": 4653,
      "▁cumpl": 4654,
      "iso": 4655,
      "▁France": 4656,
      "-R": 4657,
      "ña": 4658,
      "zug": 4659,
      "press": 4660,
      "▁dec": 4661,
      "olution": 4662,
      "▁2011": 4663,
      "▁seul": 4664,
      "ieron": 4665,
      "amin": 4666,
      "▁table": 4667,
      "ales.\n": 4668,
      "▁ante": 4669,
      "▁Jan": 4670,
      "-E": 4671,
      "hen.": 4672,
      "▁net": 4673,
      "▁€": 4674,
      "ica,": 4675,
      "ster": 4676,
      "ed.\n": 4677,
      "▁gre": 4678,
      "andid": 4679,
      "▁ol": 4680,
      "▁celui": 4681,
      "-ce": 4682,
      "▁kon": 4683,
      "ühl": 4684,
      "▁May": 4685,
      "annt": 4686,
      "maz": 4687,
      "▁Dar": 4688,
      "▁Wochen": 4689,
      "▁Informationen": 4690,
      "▁link": 4691,
      "▁algunos": 4692,
      "fre": 4693,
      "▁É": 4694,
      "çon": 4695,
      "ción,": 4696,
      "▁Ind": 4697,
      "▁Nutz": 4698,
      "▁parce": 4699,
      "-b": 4700,
      "▁having": 4701,
      "ientras": 4702,
      "▁destin": 4703,
      "▁richtig": 4704,
      "iè": 4705,
      "▁distr": 4706,
      "▁vent": 4707,
      "burg": 4708,
      "▁Pa": 4709,
      "at,": 4710,
      "▁determin": 4711,
      "▁meille": 4712,
      "▁mov": 4713,
      "otros": 4714,
      "▁less": 4715,
      "▁nú": 4716,
      "taur": 4717,
      "▁segund": 4718,
      "▁Hotel": 4719,
      "ération": 4720,
      "▁Mill": 4721,
      "▁lég": 4722,
      "▁besoin": 4723,
      "tid": 4724,
      "arán": 4725,
      "esp": 4726,
      "▁constitu": 4727,
      "▁Google": 4728,
      "▁rend": 4729,
      "una": 4730,
      "leit": 4731,
      "▁Bar": 4732,
      "iez": 4733,
      "▁dese": 4734,
      "▁Eins": 4735,
      "▁it,": 4736,
      "ram": 4737,
      "ared": 4738,
      "▁reste": 4739,
      "▁einige": 4740,
      "▁check": 4741,
      "ante,": 4742,
      "eur": 4743,
      "hält": 4744,
      "▁getting": 4745,
      "▁veces": 4746,
      "▁trouve": 4747,
      "acidad": 4748,
      "▁Kunden": 4749,
      "▁bzw.": 4750,
      "▁proced": 4751,
      "▁http://": 4752,
      "▁[...": 4753,
      "irt": 4754,
      "▁curr": 4755,
      "onders": 4756,
      "▁nuestros": 4757,
      "▁situation": 4758,
      "▁aj": 4759,
      "▁gracias": 4760,
      "▁period": 4761,
      "-W": 4762,
      "▁consid": 4763,
      "▁français": 4764,
      "isión": 4765,
      "▁type": 4766,
      "▁verschieden": 4767,
      "▁during": 4768,
      "▁Facebook": 4769,
      "▁Ang": 4770,
      "▁recomm": 4771,
      "▁Artik": 4772,
      "▁bal": 4773,
      "uesto": 4774,
      "ually": 4775,
      "▁electr": 4776,
      "assen": 4777,
      "UE": 4778,
      "▁carr": 4779,
      "▁nouveau": 4780,
      "▁Frage": 4781,
      "▁today": 4782,
      "▁build": 4783,
      "eau": 4784,
      "▁actually": 4785,
      "▁reco": 4786,
      "iembre": 4787,
      "rateg": 4788,
      "urance": 4789,
      "irl": 4790,
      "▁jug": 4791,
      "▁coll": 4792,
      "komm": 4793,
      "▁amig": 4794,
      "▁tex": 4795,
      "▁questions": 4796,
      "forme": 4797,
      "ciones,": 4798,
      "idente": 4799,
      "ids": 4800,
      "▁Lu": 4801,
      "action": 4802,
      "▁condu": 4803,
      "anto": 4804,
      "llen": 4805,
      "▁laiss": 4806,
      "work": 4807,
      "▁organis": 4808,
      "▁@": 4809,
      "▁estaba": 4810,
      "▁using": 4811,
      "▁access": 4812,
      "▁_": 4813,
      "ne,": 4814,
      "ker": 4815,
      "lagen": 4816,
      "▁interess": 4817,
      "pez": 4818,
      "▁Frau": 4819,
      "lay": 4820,
      "▁Merci": 4821,
      "▁doing": 4822,
      "▁soc": 4823,
      "▁pati": 4824,
      "▁utiliz": 4825,
      "▁Bed": 4826,
      "article": 4827,
      "▁schw": 4828,
      "▁Prof": 4829,
      "oud": 4830,
      "▁allow": 4831,
      "0,": 4832,
      "▁acuerdo": 4833,
      "öß": 4834,
      "rais": 4835,
      "▁Dem": 4836,
      "▁rapport": 4837,
      "äft": 4838,
      "▁manten": 4839,
      "▁Wohn": 4840,
      "▁poten": 4841,
      "▁inde": 4842,
      "orts": 4843,
      "▁grandes": 4844,
      "▁(s": 4845,
      "▁Unternehmen": 4846,
      "▁institu": 4847,
      "erse": 4848,
      "▁macht": 4849,
      "\".": 4850,
      "▁condi": 4851,
      "voll": 4852,
      "▁making": 4853,
      "▁tengo": 4854,
      "▁vielleicht": 4855,
      "▁arbeit": 4856,
      "▁\"S": 4857,
      "écn": 4858,
      "ences": 4859,
      "▁administra": 4860,
      "pert": 4861,
      "▁gute": 4862,
      "lichkeit": 4863,
      "▁29": 4864,
      "▁valor": 4865,
      "tage": 4866,
      "▁Form": 4867,
      "▁peux": 4868,
      "ilar": 4869,
      "▁nego": 4870,
      "▁gust": 4871,
      "▁\"D": 4872,
      "▁room": 4873,
      "▁website": 4874,
      "▁ing": 4875,
      "▁professionn": 4876,
      "ctions": 4877,
      "▁aur": 4878,
      "enten": 4879,
      "▁adap": 4880,
      "▁t'": 4881,
      "fér": 4882,
      "▁oft": 4883,
      "ätig": 4884,
      "ush": 4885,
      "ception": 4886,
      "ote": 4887,
      "▁puedes": 4888,
      "IT": 4889,
      "??": 4890,
      "▁opin": 4891,
      "▁davon": 4892,
      "▁cur": 4893,
      "é.\n": 4894,
      "▁Durch": 4895,
      "▁n'a": 4896,
      "▁“T": 4897,
      "▁syst": 4898,
      "ots": 4899,
      "▁grat": 4900,
      "uses": 4901,
      "wohl": 4902,
      "▁anti": 4903,
      "ire,": 4904,
      "▁avail": 4905,
      "▁eigentlich": 4906,
      "▁Ide": 4907,
      "lait": 4908,
      "▁serait": 4909,
      "ased": 4910,
      "▁ru": 4911,
      "▁Af": 4912,
      "▁\"A": 4913,
      "▁Rück": 4914,
      "▁hear": 4915,
      "gangen": 4916,
      "ichts": 4917,
      "▁enjoy": 4918,
      "▁artic": 4919,
      "ta,": 4920,
      "ever,": 4921,
      "▁besser": 4922,
      "oupe": 4923,
      "▁surtout": 4924,
      "ez": 4925,
      "▁lass": 4926,
      "▁came": 4927,
      "▁spä": 4928,
      "wert": 4929,
      "▁satis": 4930,
      "gu": 4931,
      "ien,": 4932,
      "▁Besch": 4933,
      "▁alread": 4934,
      "ards": 4935,
      "tiva": 4936,
      "▁exemp": 4937,
      "▁millones": 4938,
      "OM": 4939,
      "ém": 4940,
      "▁It’s": 4941,
      "cture": 4942,
      "▁correspond": 4943,
      "▁liegt": 4944,
      "▁labor": 4945,
      "encias": 4946,
      "▁ur": 4947,
      "auer": 4948,
      "spr": 4949,
      "▁quelque": 4950,
      "▁usu": 4951,
      "▁oth": 4952,
      "▁conoci": 4953,
      "▁pan": 4954,
      "▁uso": 4955,
      "▁done": 4956,
      "ibl": 4957,
      "tial": 4958,
      "▁Comp": 4959,
      "▁dic": 4960,
      "utter": 4961,
      "▁resul": 4962,
      "hab": 4963,
      "▁sû": 4964,
      "anger": 4965,
      "200": 4966,
      "▁effect": 4967,
      "▁hon": 4968,
      "▁Plan": 4969,
      "▁sci": 4970,
      "osp": 4971,
      "▁Dann": 4972,
      "▁perform": 4973,
      "▁niveau": 4974,
      "▁prix": 4975,
      "▁wird,": 4976,
      "▁Ant": 4977,
      "▁until": 4978,
      "▁Wel": 4979,
      "▁Weit": 4980,
      "icherheit": 4981,
      "▁fix": 4982,
      "▁hacia": 4983,
      "▁Bereich": 4984,
      "amment": 4985,
      "▁númer": 4986,
      "www.": 4987,
      "▁según": 4988,
      "▁Gar": 4989,
      "▁Kom": 4990,
      "▁hope": 4991,
      "▁nouvelle": 4992,
      "tien": 4993,
      "▁répond": 4994,
      "▁desarrollo": 4995,
      "hmen": 4996,
      "▁modif": 4997,
      "▁custom": 4998,
      "auv": 4999,
      "tidad": 5000,
      "▁lieu": 5001,
      "▁Conse": 5002,
      "tión": 5003,
      "▁territ": 5004,
      "ity,": 5005,
      "eux": 5006,
      "▁prac": 5007,
      "icip": 5008,
      "▁cele": 5009,
      "▁Christ": 5010,
      "ionen": 5011,
      "!!!\n": 5012,
      "▁alt": 5013,
      "unicip": 5014,
      "▁mise": 5015,
      "▁Fol": 5016,
      "▁cit": 5017,
      "▁cambi": 5018,
      "▁try": 5019,
      "é.": 5020,
      "▁full": 5021,
      "publ": 5022,
      "▁least": 5023,
      "▁Nov": 5024,
      "schutz": 5025,
      "▁conne": 5026,
      "5,": 5027,
      "-ci": 5028,
      "▁Kind": 5029,
      "ppe": 5030,
      "▁God": 5031,
      "▁petite": 5032,
      "aug": 5033,
      "▁während": 5034,
      "▁saber": 5035,
      "able,": 5036,
      "nehmer": 5037,
      "▁cause": 5038,
      "ung.\n": 5039,
      "ados,": 5040,
      "▁meinen": 5041,
      "unes": 5042,
      "-V": 5043,
      "ftware": 5044,
      "▁económ": 5045,
      "ief": 5046,
      "ierten": 5047,
      "▁servicios": 5048,
      "▁europ": 5049,
      "▁haber": 5050,
      "▁coment": 5051,
      "▁solic": 5052,
      "▁Apr": 5053,
      "▁kenn": 5054,
      "▁San": 5055,
      "ball": 5056,
      "schließ": 5057,
      "cel": 5058,
      "▁law": 5059,
      "▁Fot": 5060,
      "écur": 5061,
      "99": 5062,
      "▁x": 5063,
      "▁wonder": 5064,
      "iante": 5065,
      "▁Cuando": 5066,
      "äm": 5067,
      "▁experience": 5068,
      "▁(C": 5069,
      "reis": 5070,
      "▁raz": 5071,
      "▁assez": 5072,
      "age,": 5073,
      "ID": 5074,
      "▁typ": 5075,
      "▁proceso": 5076,
      "▁persön": 5077,
      "bei": 5078,
      "yn": 5079,
      "▁date": 5080,
      "il,": 5081,
      "ico,": 5082,
      "isme": 5083,
      "▁recht": 5084,
      "▁rech": 5085,
      "▁folg": 5086,
      "▁econom": 5087,
      "uar": 5088,
      "▁recib": 5089,
      "▁Spe": 5090,
      "▁jem": 5091,
      "cn": 5092,
      "ières": 5093,
      "▁Dire": 5094,
      "▁team": 5095,
      "uche": 5096,
      "▁II": 5097,
      "isis": 5098,
      "eros": 5099,
      "▁Problem": 5100,
      "▁Proje": 5101,
      "▁restaur": 5102,
      "▁meet": 5103,
      "ateur": 5104,
      "▁someone": 5105,
      "▁Pres": 5106,
      "▁Dank": 5107,
      "ers.": 5108,
      "▁einge": 5109,
      "▁major": 5110,
      "ître": 5111,
      "▁principal": 5112,
      "esen": 5113,
      "▁cra": 5114,
      "▁Beispiel": 5115,
      "▁Denn": 5116,
      "▁werde": 5117,
      "fehl": 5118,
      "▁believe": 5119,
      "on.": 5120,
      "erk": 5121,
      "ändern": 5122,
      "ces,": 5123,
      "▁prepar": 5124,
      "ôle": 5125,
      "ental": 5126,
      "▁Zusammen": 5127,
      "▁Tout": 5128,
      "▁Pf": 5129,
      "▁vuel": 5130,
      "issement": 5131,
      "▁rapp": 5132,
      "urer": 5133,
      "▁vér": 5134,
      "▁working": 5135,
      "▁indic": 5136,
      "▁It's": 5137,
      "▁happen": 5138,
      "▁family": 5139,
      "▁perfe": 5140,
      "legen": 5141,
      "ipe": 5142,
      "▁Ok": 5143,
      "▁ries": 5144,
      "icial": 5145,
      "▁arriv": 5146,
      "vert": 5147,
      "▁igual": 5148,
      "ente,": 5149,
      "▁thank": 5150,
      "ples": 5151,
      "AT": 5152,
      "lauf": 5153,
      "lau": 5154,
      "-f": 5155,
      "antas": 5156,
      "▁spiel": 5157,
      "ciendo": 5158,
      "omme": 5159,
      "▁öff": 5160,
      "ue,": 5161,
      "itive": 5162,
      "▁(d": 5163,
      "▁197": 5164,
      "▁material": 5165,
      "ar.\n": 5166,
      "▁donner": 5167,
      "▁ausge": 5168,
      "▁keinen": 5169,
      "▁sogar": 5170,
      "entral": 5171,
      "▁möchte": 5172,
      "autre": 5173,
      "eich": 5174,
      "▁infl": 5175,
      "ergie": 5176,
      "▁commer": 5177,
      "zieh": 5178,
      "itik": 5179,
      "▁eigenen": 5180,
      "▁qu'on": 5181,
      "▁One": 5182,
      "▁passer": 5183,
      "gether": 5184,
      "iera": 5185,
      "▁sei": 5186,
      "aher": 5187,
      "▁cul": 5188,
      "▁already": 5189,
      "gn": 5190,
      "ológ": 5191,
      "anst": 5192,
      "▁Col": 5193,
      "▁Sol": 5194,
      "▁mej": 5195,
      "▁contrat": 5196,
      "imer": 5197,
      "ellement": 5198,
      "agen": 5199,
      "▁respect": 5200,
      "▁Bre": 5201,
      "▁Regel": 5202,
      "▁2012": 5203,
      "▁qu'elle": 5204,
      "▁sav": 5205,
      "▁gab": 5206,
      "▁equip": 5207,
      "▁Como": 5208,
      "▁akt": 5209,
      "ov": 5210,
      "anted": 5211,
      "▁individual": 5212,
      "▁lik": 5213,
      "ilfe": 5214,
      "outh": 5215,
      "▁impl": 5216,
      "▁UN": 5217,
      "▁course": 5218,
      "▁relig": 5219,
      "ortun": 5220,
      "fte": 5221,
      "▁casa": 5222,
      "▁zwar": 5223,
      "LE": 5224,
      "▁toi": 5225,
      "ision": 5226,
      "▁food": 5227,
      "ellschaft": 5228,
      "zogen": 5229,
      "▁Bil": 5230,
      "▁sil": 5231,
      "▁souvent": 5232,
      "▁verste": 5233,
      "▁trouv": 5234,
      "▁color": 5235,
      "▁Cons": 5236,
      "▁Zahl": 5237,
      "▁perfect": 5238,
      "igung": 5239,
      "▁kl": 5240,
      "ograph": 5241,
      "▁ley": 5242,
      "▁integr": 5243,
      "▁cô": 5244,
      "▁misma": 5245,
      "▁glob": 5246,
      "▁Ziel": 5247,
      "▁days": 5248,
      "quer": 5249,
      "▁Gu": 5250,
      "cimiento": 5251,
      "▁Di": 5252,
      "▁Spa": 5253,
      "▁gam": 5254,
      "aje": 5255,
      "▁cuer": 5256,
      "anza": 5257,
      "▁M.": 5258,
      "▁unseren": 5259,
      "le.": 5260,
      "▁satisf": 5261,
      "▁hast": 5262,
      "▁ll": 5263,
      "▁Vol": 5264,
      "▁Entwick": 5265,
      "itter": 5266,
      "▁fas": 5267,
      "▁observ": 5268,
      "▁5.": 5269,
      "puesta": 5270,
      "ics": 5271,
      "▁bleib": 5272,
      "ether": 5273,
      "▁ép": 5274,
      "▁technolog": 5275,
      "in.": 5276,
      "▁live": 5277,
      "▁buena": 5278,
      "▁diferentes": 5279,
      "schein": 5280,
      "▁enter": 5281,
      "▁Stand": 5282,
      "▁level": 5283,
      "▁recom": 5284,
      "▁chance": 5285,
      "▁benefici": 5286,
      "▁partici": 5287,
      "▁sug": 5288,
      "▁télé": 5289,
      "▁mean": 5290,
      "US": 5291,
      "▁punto": 5292,
      "gas": 5293,
      "▁pág": 5294,
      "▁conditions": 5295,
      "itte": 5296,
      "▁meinem": 5297,
      "▁fá": 5298,
      "▁tel": 5299,
      "▁weitere": 5300,
      "▁pie": 5301,
      "▁night": 5302,
      "ird": 5303,
      "▁Zwe": 5304,
      "aller": 5305,
      "organ": 5306,
      "▁fu": 5307,
      "▁Jun": 5308,
      "▁»,": 5309,
      "▁once": 5310,
      "▁Gegen": 5311,
      "urso": 5312,
      "▁sommes": 5313,
      "▁went": 5314,
      "▁aujourd": 5315,
      "▁Aug": 5316,
      "▁direkt": 5317,
      "ier,": 5318,
      "▁técn": 5319,
      "▁Verb": 5320,
      "▁govern": 5321,
      "▁dijo": 5322,
      "▁against": 5323,
      "▁Stre": 5324,
      "icaciones": 5325,
      "▁Organ": 5326,
      "ánd": 5327,
      "▁sing": 5328,
      "amer": 5329,
      "earch": 5330,
      "grama": 5331,
      "9,": 5332,
      "▁anterior": 5333,
      "▁atta": 5334,
      "▁sever": 5335,
      "▁loi": 5336,
      "▁large": 5337,
      "▁means": 5338,
      "▁hij": 5339,
      "▁corr": 5340,
      "▁you’re": 5341,
      "rift": 5342,
      "m,": 5343,
      "▁money": 5344,
      "tación": 5345,
      "▁Frank": 5346,
      "▁Erfahr": 5347,
      "-l": 5348,
      "▁erste": 5349,
      "▁Your": 5350,
      "▁teil": 5351,
      "time": 5352,
      "ima": 5353,
      "▁available": 5354,
      "▁EN": 5355,
      "AM": 5356,
      "▁ress": 5357,
      "▁Sur": 5358,
      "▁alc": 5359,
      "f,": 5360,
      "▁Preis": 5361,
      "▁dess": 5362,
      "▁desarroll": 5363,
      "▁80": 5364,
      "▁tax": 5365,
      "▁Som": 5366,
      "-\n": 5367,
      "▁accord": 5368,
      "adie": 5369,
      "▁Alle": 5370,
      "▁ped": 5371,
      "▁it.\n": 5372,
      "▁wait": 5373,
      "▁fel": 5374,
      "ural": 5375,
      "▁pasado": 5376,
      "▁project": 5377,
      "▁calidad": 5378,
      "▁début": 5379,
      "▁Artikel": 5380,
      "▁parece": 5381,
      "▁Fragen": 5382,
      "gress": 5383,
      "▁emo": 5384,
      "▁etwa": 5385,
      "▁candid": 5386,
      "lease": 5387,
      "▁productos": 5388,
      "▁With": 5389,
      "▁l'é": 5390,
      "▁Vo": 5391,
      "▁„D": 5392,
      "▁ase": 5393,
      "ation.\n": 5394,
      "▁extre": 5395,
      "▁celle": 5396,
      "▁adop": 5397,
      "CH": 5398,
      "▁perman": 5399,
      "▁pat": 5400,
      "▁Berlin": 5401,
      "▁anything": 5402,
      "▁Adem": 5403,
      "▁together": 5404,
      "▁Thanks": 5405,
      "ite,": 5406,
      "▁pró": 5407,
      "1.": 5408,
      "lich,": 5409,
      "▁element": 5410,
      "fühl": 5411,
      "ation.": 5412,
      "▁Doch": 5413,
      "▁Yo": 5414,
      "▁Beit": 5415,
      "lack": 5416,
      "▁water": 5417,
      "oute": 5418,
      "▁jud": 5419,
      "▁buy": 5420,
      "ars": 5421,
      "▁national": 5422,
      "ret": 5423,
      "▁discuss": 5424,
      "▁an,": 5425,
      "▁tip": 5426,
      "▁grow": 5427,
      "▁mientras": 5428,
      "rieben": 5429,
      "▁reason": 5430,
      "idence": 5431,
      "▁hoch": 5432,
      "▁problème": 5433,
      "▁dür": 5434,
      "▁embargo,": 5435,
      "▁jemand": 5436,
      "▁left": 5437,
      "▁Trans": 5438,
      "iene": 5439,
      "▁SE": 5440,
      "▁usted": 5441,
      "test": 5442,
      "sych": 5443,
      "▁following": 5444,
      "bel": 5445,
      "3.": 5446,
      "ticos": 5447,
      "cur": 5448,
      "arlo": 5449,
      "▁minutes": 5450,
      "ished": 5451,
      "▁S.": 5452,
      "um,": 5453,
      "▁desc": 5454,
      "▁servicio": 5455,
      "▁Españ": 5456,
      "▁últim": 5457,
      "▁sécur": 5458,
      "▁seguir": 5459,
      "▁siguiente": 5460,
      "▁appr": 5461,
      "tiques": 5462,
      "pportun": 5463,
      "'ll": 5464,
      "▁Angeb": 5465,
      "▁utilis": 5466,
      "vention": 5467,
      "B.": 5468,
      "▁enfer": 5469,
      "istes": 5470,
      "▁hemos": 5471,
      "üt": 5472,
      "it,": 5473,
      "▁miss": 5474,
      "altung": 5475,
      "gos": 5476,
      "▁enfants": 5477,
      "imo": 5478,
      "▁Kar": 5479,
      "▁signif": 5480,
      "▁ban": 5481,
      "blema": 5482,
      "▁certains": 5483,
      "▁jo": 5484,
      "▁phys": 5485,
      "▁prév": 5486,
      "▁Char": 5487,
      "▁Ils": 5488,
      "▁además": 5489,
      "▁stre": 5490,
      "ield": 5491,
      "▁power": 5492,
      "ième": 5493,
      "érien": 5494,
      "▁lassen": 5495,
      "tely": 5496,
      "ieren,": 5497,
      "▁ihnen": 5498,
      "▁presente": 5499,
      "ibilidad": 5500,
      "▁sehen": 5501,
      "▁n’a": 5502,
      "▁capac": 5503,
      "oph": 5504,
      "▁Program": 5505,
      "▁Mod": 5506,
      "▁ense": 5507,
      "tres": 5508,
      "▁objet": 5509,
      "ged": 5510,
      "achen": 5511,
      "▁Cas": 5512,
      "▁wahr": 5513,
      "▁tard": 5514,
      "▁content": 5515,
      "▁orden": 5516,
      "▁guer": 5517,
      "▁bad": 5518,
      "▁können.": 5519,
      "▁sector": 5520,
      "▁instal": 5521,
      "▁bien,": 5522,
      "▁relación": 5523,
      "▁(P": 5524,
      "▁nueva": 5525,
      "ursos": 5526,
      "▁seinem": 5527,
      "▁haben.": 5528,
      "▁konnte": 5529,
      "▁within": 5530,
      "cement": 5531,
      "-H": 5532,
      "▁Bau": 5533,
      "rieb": 5534,
      "▁dif": 5535,
      "▁meisten": 5536,
      "▁position": 5537,
      "ationale": 5538,
      "▁Ihrer": 5539,
      "8,": 5540,
      "▁hätte": 5541,
      "▁compañ": 5542,
      "▁gilt": 5543,
      "isto": 5544,
      "▁Herr": 5545,
      "cup": 5546,
      "tent": 5547,
      "▁air": 5548,
      "▁¿Q": 5549,
      "▁má": 5550,
      "▁l’ex": 5551,
      "▁Mitarbeit": 5552,
      "▁points": 5553,
      "▁I've": 5554,
      "érieur": 5555,
      "▁gens": 5556,
      "▁kannst": 5557,
      "▁🙂": 5558,
      "▁Europe": 5559,
      "▁won": 5560,
      "▁2,": 5561,
      "▁seu": 5562,
      "▁cier": 5563,
      "▁produits": 5564,
      "▁mens": 5565,
      "▁manif": 5566,
      "ée.\n": 5567,
      "ateg": 5568,
      "ielle": 5569,
      "▁große": 5570,
      "▁promo": 5571,
      "▁emple": 5572,
      "▁voit": 5573,
      "▁retour": 5574,
      "▁règ": 5575,
      "▁alguna": 5576,
      "▁Will": 5577,
      "en\n": 5578,
      "▁könnte": 5579,
      "’ll": 5580,
      "ueb": 5581,
      "▁peut-être": 5582,
      "äss": 5583,
      "▁soir": 5584,
      "▁game": 5585,
      "▁choix": 5586,
      "▁Leist": 5587,
      "▁Fir": 5588,
      "qué": 5589,
      "▁deta": 5590,
      "üf": 5591,
      "▁belle": 5592,
      "10": 5593,
      "▁empresa": 5594,
      "▁pur": 5595,
      "▁exist": 5596,
      "▁tas": 5597,
      "▁remp": 5598,
      "▁Mich": 5599,
      "▁Ged": 5600,
      "örper": 5601,
      "▁case": 5602,
      "▁mí": 5603,
      "▁impro": 5604,
      "▁mort": 5605,
      "ran": 5606,
      "▁Now": 5607,
      "res,": 5608,
      "▁Septem": 5609,
      "▁muer": 5610,
      "▁conocer": 5611,
      "▁2010": 5612,
      "unds": 5613,
      "indow": 5614,
      "cif": 5615,
      "ondere": 5616,
      "▁\"E": 5617,
      "3,": 5618,
      "▁¿C": 5619,
      "ell,": 5620,
      "▁>": 5621,
      "▁confi": 5622,
      "ril": 5623,
      "▁existe": 5624,
      "▁shall": 5625,
      "ar.": 5626,
      "▁vas": 5627,
      "wor": 5628,
      "▁beiden": 5629,
      "▁efect": 5630,
      "▁sein.": 5631,
      "▁Ah": 5632,
      "▁land": 5633,
      "▁número": 5634,
      "1,": 5635,
      "▁l’h": 5636,
      "tty": 5637,
      "▁dre": 5638,
      "iert,": 5639,
      "▁Tage": 5640,
      "▁difficult": 5641,
      "▁inner": 5642,
      "telle": 5643,
      "stellung": 5644,
      "▁pues": 5645,
      "▁hora": 5646,
      "m.": 5647,
      "opf": 5648,
      "▁selon": 5649,
      "▁det": 5650,
      "▁ä": 5651,
      "▁siguientes": 5652,
      "▁Komm": 5653,
      "most": 5654,
      "▁Hal": 5655,
      "▁sant": 5656,
      "▁+": 5657,
      "frut": 5658,
      "itut": 5659,
      "▁prác": 5660,
      "ahmen": 5661,
      "▁casi": 5662,
      "▁nächsten": 5663,
      "▁minist": 5664,
      "▁veux": 5665,
      "ostr": 5666,
      "▁makes": 5667,
      "▁nosotros": 5668,
      "▁kle": 5669,
      "odo": 5670,
      "▁aument": 5671,
      "▁libre": 5672,
      "▁wird.": 5673,
      "▁optim": 5674,
      "▁Techn": 5675,
      "▁ligne": 5676,
      "▁Some": 5677,
      "▁Also": 5678,
      "▁estoy": 5679,
      "▁tienes": 5680,
      "▁environ": 5681,
      "▁heiß": 5682,
      "▁view": 5683,
      "▁großen": 5684,
      "▁walk": 5685,
      "▁mention": 5686,
      "urs,": 5687,
      "uge": 5688,
      "▁Che": 5689,
      "▁Gro": 5690,
      "▁Entscheid": 5691,
      "▁seguridad": 5692,
      "érer": 5693,
      "urt": 5694,
      "▁appar": 5695,
      "▁apoy": 5696,
      "▁historia": 5697,
      "▁I’ve": 5698,
      "▁motiv": 5699,
      "amento": 5700,
      "atro": 5701,
      "▁vale": 5702,
      "▁Rechts": 5703,
      "ake": 5704,
      "lace": 5705,
      "▁patr": 5706,
      "▁associ": 5707,
      "▁provide": 5708,
      "oren": 5709,
      "glie": 5710,
      "▁identif": 5711,
      "▁took": 5712,
      "▁faci": 5713,
      ":00": 5714,
      "▁email": 5715,
      "▁geb": 5716,
      "▁internet": 5717,
      "▁y,": 5718,
      "iquer": 5719,
      "zus": 5720,
      "▁atención": 5721,
      "▁relativ": 5722,
      "cke": 5723,
      "▁Ben": 5724,
      "▁prior": 5725,
      "▁cru": 5726,
      "▁Cre": 5727,
      "▁sind.": 5728,
      "▁invest": 5729,
      "▁ville": 5730,
      "▁l'h": 5731,
      "char": 5732,
      "icio": 5733,
      "▁Fer": 5734,
      "▁watch": 5735,
      "▁ade": 5736,
      "No": 5737,
      "4,": 5738,
      "▁Jes": 5739,
      "▁próxim": 5740,
      "▁passe": 5741,
      "anken": 5742,
      "▁existen": 5743,
      "▁leider": 5744,
      "anche": 5745,
      "▁Bü": 5746,
      "uls": 5747,
      "▁aún": 5748,
      "mente,": 5749,
      "ories": 5750,
      "▁deine": 5751,
      "tiqu": 5752,
      "▁quite": 5753,
      "60": 5754,
      "inas": 5755,
      "pflich": 5756,
      "▁tenemos": 5757,
      "▁größ": 5758,
      "▁Entfern": 5759,
      "▁entend": 5760,
      "▁sollten": 5761,
      "▁famille": 5762,
      "▁darüber": 5763,
      "▁fur": 5764,
      "▁podemos": 5765,
      "▁ES": 5766,
      "▁schö": 5767,
      "itude": 5768,
      "▁var": 5769,
      "▁wün": 5770,
      "▁pen": 5771,
      "▁consul": 5772,
      "▁kam": 5773,
      "▁name": 5774,
      "▁gemeins": 5775,
      "stra": 5776,
      "▁disco": 5777,
      "▁often": 5778,
      "▁encontrar": 5779,
      "▁horas": 5780,
      "umen": 5781,
      "ie.": 5782,
      "▁symp": 5783,
      "▁façon": 5784,
      "▁vig": 5785,
      "punkt": 5786,
      "▁“W": 5787,
      "▁représ": 5788,
      "lación": 5789,
      "5.": 5790,
      "▁hol": 5791,
      "▁success": 5792,
      "wand": 5793,
      "7,": 5794,
      "▁media": 5795,
      "▁90": 5796,
      "ases": 5797,
      "▁Po": 5798,
      "▁rom": 5799,
      "▁ca.": 5800,
      "▁trying": 5801,
      "untos": 5802,
      "hic": 5803,
      "ología": 5804,
      "rop": 5805,
      "▁including": 5806,
      ",\"": 5807,
      "▁rund": 5808,
      "gabe": 5809,
      "▁near": 5810,
      "^^": 5811,
      "iant": 5812,
      "ENT": 5813,
      "▁plut": 5814,
      "▁Bel": 5815,
      "▁connaiss": 5816,
      "▁Natur": 5817,
      "éné": 5818,
      "▁responsabil": 5819,
      "▁problema": 5820,
      "▁capital": 5821,
      "▁Verfüg": 5822,
      "▁arm": 5823,
      "/201": 5824,
      "▁van": 5825,
      "▁gros": 5826,
      "▁nunca": 5827,
      "antwort": 5828,
      "▁Em": 5829,
      "kon": 5830,
      "▁Online": 5831,
      "▁Geschäft": 5832,
      "▁logr": 5833,
      "▁else": 5834,
      "ieren.": 5835,
      "▁résult": 5836,
      "cos": 5837,
      "oul": 5838,
      "▁exact": 5839,
      "äf": 5840,
      "▁entsprech": 5841,
      "▁expres": 5842,
      "▁cover": 5843,
      "▁altern": 5844,
      "▁become": 5845,
      "ufen": 5846,
      "▁qualité": 5847,
      "’ve": 5848,
      "▁September": 5849,
      "werk": 5850,
      "▁Qual": 5851,
      "▁palab": 5852,
      "▁Pas": 5853,
      "ala": 5854,
      "iles": 5855,
      "4.": 5856,
      "emin": 5857,
      "▁actividades": 5858,
      "▁gehen": 5859,
      "▁J’ai": 5860,
      "▁report": 5861,
      "▁pourquoi": 5862,
      "▁la\n": 5863,
      "▁told": 5864,
      "vid": 5865,
      "ût": 5866,
      "▁company": 5867,
      "-2": 5868,
      "▁außer": 5869,
      "ässt": 5870,
      "des": 5871,
      "▁represent": 5872,
      "ane": 5873,
      "▁général": 5874,
      "ester": 5875,
      "▁--": 5876,
      "▁insp": 5877,
      "▁besonders": 5878,
      "▁special": 5879,
      "empl": 5880,
      "▁nov": 5881,
      "ienst": 5882,
      "▁acco": 5883,
      "▁hombre": 5884,
      "▁multi": 5885,
      "bie": 5886,
      "col": 5887,
      "▁Blog": 5888,
      "▁Gru": 5889,
      "▁opportun": 5890,
      "▁besten": 5891,
      "▁probably": 5892,
      "RO": 5893,
      "▁children": 5894,
      "▁oportun": 5895,
      "▁fabr": 5896,
      "▁IN": 5897,
      "▁provid": 5898,
      "6,": 5899,
      "very": 5900,
      "▁z.": 5901,
      "hren": 5902,
      "tellung": 5903,
      "na": 5904,
      "▁hinter": 5905,
      "▁allerdings": 5906,
      "▁algunas": 5907,
      "▁erfolg": 5908,
      "▁creo": 5909,
      "▁whole": 5910,
      "▁choses": 5911,
      "▁Dam": 5912,
      "▁niños": 5913,
      "icar": 5914,
      "▁quick": 5915,
      "cks": 5916,
      "▁convers": 5917,
      "▁apart": 5918,
      "recht": 5919,
      "▁bat": 5920,
      "▁lit": 5921,
      "▁Sicherheit": 5922,
      "ändig": 5923,
      "▁situación": 5924,
      "kauf": 5925,
      "tru": 5926,
      "▁\"L": 5927,
      "▁young": 5928,
      "ice,": 5929,
      "cciones": 5930,
      "unch": 5931,
      "▁unserem": 5932,
      "▁Den": 5933,
      "-Mail": 5934,
      "ruct": 5935,
      "ulo": 5936,
      "▁bekomm": 5937,
      "▁sang": 5938,
      "▁pretty": 5939,
      "▁stehen": 5940,
      "▁côté": 5941,
      "haupt": 5942,
      "eten": 5943,
      "▁es,": 5944,
      "brauch": 5945,
      "▁Dir": 5946,
      "▁efe": 5947,
      "ules": 5948,
      "▁video": 5949,
      "aban": 5950,
      "▁side": 5951,
      "▁cuent": 5952,
      "cionales": 5953,
      "eta": 5954,
      "▁international": 5955,
      "▁card": 5956,
      "▁(3": 5957,
      "asi": 5958,
      "▁Ins": 5959,
      "▁limit": 5960,
      "ugend": 5961,
      "▁Entfernung": 5962,
      "▁November": 5963,
      "▁finde": 5964,
      "▁êtes": 5965,
      "▁findet": 5966,
      "ellen": 5967,
      "▁(B": 5968,
      "ises": 5969,
      "▁desp": 5970,
      "unst": 5971,
      "▁70": 5972,
      "▁km": 5973,
      "edor": 5974,
      "▁Ihren": 5975,
      "▁tecn": 5976,
      "▁light": 5977,
      "▁geben": 5978,
      "indre": 5979,
      "▁derecho": 5980,
      "uras": 5981,
      "▁tur": 5982,
      "letz": 5983,
      "fois": 5984,
      "piel": 5985,
      "▁l’in": 5986,
      "▁darf": 5987,
      "▁gob": 5988,
      "ehen": 5989,
      "▁code": 5990,
      "▁Mehr": 5991,
      "▁sieht": 5992,
      "ände": 5993,
      "▁bede": 5994,
      "▁disfrut": 5995,
      "ums": 5996,
      "▁EU": 5997,
      "▁erklär": 5998,
      "▁haya": 5999,
      "▁hub": 6000,
      "▁wollen": 6001,
      "ouvrir": 6002,
      "ée.": 6003,
      "▁llegar": 6004,
      "ern,": 6005,
      "inden": 6006,
      "▁positiv": 6007,
      "UN": 6008,
      "mann": 6009,
      "ically": 6010,
      "▁bew": 6011,
      "ove": 6012,
      "▁“E": 6013,
      "ift": 6014,
      "kten": 6015,
      "▁NO": 6016,
      "▁fuera": 6017,
      "örder": 6018,
      "▁short": 6019,
      "gesetz": 6020,
      "▁due": 6021,
      "▁photos": 6022,
      "▁weniger": 6023,
      "▁house": 6024,
      "▁lat": 6025,
      "rän": 6026,
      "▁système": 6027,
      "oma": 6028,
      "▁modern": 6029,
      "▁ampl": 6030,
      "▁spr": 6031,
      "▁algún": 6032,
      "▁clear": 6033,
      "ad,": 6034,
      "▁minim": 6035,
      "trä": 6036,
      "▁Hö": 6037,
      "▁ello": 6038,
      "▁erhalten": 6039,
      "alen": 6040,
      "▁vrai": 6041,
      "▁comes": 6042,
      "▁Herz": 6043,
      "▁guy": 6044,
      "stru": 6045,
      "▁Selbst": 6046,
      "▁Wasser": 6047,
      "▁imm": 6048,
      "ED": 6049,
      "▁crois": 6050,
      "oo": 6051,
      "▁past": 6052,
      "▁eux": 6053,
      "mäß": 6054,
      "▁Super": 6055,
      "▁gestion": 6056,
      "▁Emp": 6057,
      "lles": 6058,
      "▁Schl": 6059,
      "▁jewe": 6060,
      "▁acer": 6061,
      "▁heraus": 6062,
      "▁fille": 6063,
      "ograf": 6064,
      "▁sl": 6065,
      "▁gemacht": 6066,
      "fass": 6067,
      "unta": 6068,
      "▁everything": 6069,
      "▁aspect": 6070,
      "▁problemas": 6071,
      "▁beginn": 6072,
      "▁ill": 6073,
      "▁Here": 6074,
      "▁können,": 6075,
      "▁nothing": 6076,
      "▁plutôt": 6077,
      "ares": 6078,
      "▁TH": 6079,
      "▁kann.": 6080,
      "▁Dr.": 6081,
      "cker": 6082,
      "▁maintenant": 6083,
      "▁nutz": 6084,
      "▁girl": 6085,
      "▁return": 6086,
      "▁empresas": 6087,
      "▁Wor": 6088,
      "▁Mas": 6089,
      "itez": 6090,
      "▁www.": 6091,
      "▁foc": 6092,
      "RA": 6093,
      "▁wissen": 6094,
      "annten": 6095,
      "zt": 6096,
      "▁relations": 6097,
      "▁Prozent": 6098,
      "▁Frauen": 6099,
      "▁film": 6100,
      "inner": 6101,
      "▁hat.": 6102,
      "iges": 6103,
      "▁Web": 6104,
      "nahmen": 6105,
      "ension": 6106,
      "▁descu": 6107,
      "ersch": 6108,
      "iales": 6109,
      "▁times": 6110,
      "▁similar": 6111,
      "▁experiencia": 6112,
      "olución": 6113,
      "▁Ist": 6114,
      "ummer": 6115,
      "▁eher": 6116,
      "▁started": 6117,
      "▁municip": 6118,
      "▁zahl": 6119,
      "▁komp": 6120,
      "esto": 6121,
      "▁everyone": 6122,
      "▁actividad": 6123,
      "▁schle": 6124,
      "aly": 6125,
      "▁gib": 6126,
      "▁sw": 6127,
      "▁intent": 6128,
      "ées,": 6129,
      "▁easy": 6130,
      "▁please": 6131,
      "40": 6132,
      "lais": 6133,
      "ado.": 6134,
      "▁Hin": 6135,
      "▁General": 6136,
      "▁(E": 6137,
      "▁Oui": 6138,
      "mm": 6139,
      "▁aufge": 6140,
      "▁bitte": 6141,
      "▁maxim": 6142,
      "▁flo": 6143,
      "▁groupe": 6144,
      "▁répon": 6145,
      "▁civil": 6146,
      "▁recherche": 6147,
      "▁kann,": 6148,
      "▁Ley": 6149,
      "yl": 6150,
      "▁Just": 6151,
      "fra": 6152,
      "nes": 6153,
      "schn": 6154,
      "▁Real": 6155,
      "▁data": 6156,
      "ine.": 6157,
      "▁années": 6158,
      "▁seen": 6159,
      "rieg": 6160,
      "▁später": 6161,
      "onces": 6162,
      "▁lic": 6163,
      "▁aquell": 6164,
      "▁:)\n": 6165,
      "ologie": 6166,
      "▁ganze": 6167,
      "'était": 6168,
      "▁seulement": 6169,
      "dos": 6170,
      "fs": 6171,
      "gemein": 6172,
      "▁York": 6173,
      "?\"\n": 6174,
      "casion": 6175,
      "band": 6176,
      "leb": 6177,
      "▁ihrem": 6178,
      "▁Rahmen": 6179,
      "▁charge": 6180,
      "▁dél": 6181,
      "▁(M": 6182,
      "unci": 6183,
      "▁Kir": 6184,
      "▁along": 6185,
      "ión,": 6186,
      "arias": 6187,
      "▁Cal": 6188,
      "▁agua": 6189,
      "ario,": 6190,
      "▁tw": 6191,
      "▁matter": 6192,
      "▁wanted": 6193,
      "▁addition": 6194,
      "▁magn": 6195,
      "▁Woche": 6196,
      "▁relev": 6197,
      "▁USA": 6198,
      "▁intro": 6199,
      "zähl": 6200,
      "▁grupo": 6201,
      "▁dim": 6202,
      "▁natural": 6203,
      "-p": 6204,
      "▁pied": 6205,
      "▁These": 6206,
      "▁l'ex": 6207,
      "▁vois": 6208,
      "▁Bas": 6209,
      "onger": 6210,
      "▁Platz": 6211,
      "amente,": 6212,
      "▁yeux": 6213,
      "▁gas": 6214,
      "▁dernier": 6215,
      "▁incluso": 6216,
      "▁deren": 6217,
      "▁fácil": 6218,
      "agne": 6219,
      "▁(D": 6220,
      "▁bud": 6221,
      "▁deben": 6222,
      "phone": 6223,
      "▁didn't": 6224,
      "__": 6225,
      "▁war,": 6226,
      "▁you,": 6227,
      "blick": 6228,
      "▁donne": 6229,
      "▁Cont": 6230,
      "▁Cor": 6231,
      "agit": 6232,
      "▁break": 6233,
      "▁manière": 6234,
      "▁2009": 6235,
      "OL": 6236,
      "▁continue": 6237,
      "▁condiciones": 6238,
      "▁Schwe": 6239,
      "▁Comme": 6240,
      "▁kosten": 6241,
      "häng": 6242,
      "▁ell": 6243,
      "/0": 6244,
      "erve": 6245,
      "ers.\n": 6246,
      "▁trata": 6247,
      "▁mass": 6248,
      "▁Pos": 6249,
      "▁legal": 6250,
      "▁000": 6251,
      "▁gusta": 6252,
      "-c": 6253,
      "▁necesario": 6254,
      "le.\n": 6255,
      "▁programa": 6256,
      "▁proces": 6257,
      "quil": 6258,
      "füll": 6259,
      "ürger": 6260,
      "▁6.": 6261,
      "▁frag": 6262,
      "▁solution": 6263,
      "▁can't": 6264,
      "iert.": 6265,
      "chte": 6266,
      "▁E-Mail": 6267,
      "▁arg": 6268,
      "▁ai": 6269,
      "lain": 6270,
      "▁Sk": 6271,
      "▁Bus": 6272,
      "▁share": 6273,
      "▁proyect": 6274,
      "▁Dur": 6275,
      "ít": 6276,
      "▁nicht.": 6277,
      "▁Wahl": 6278,
      "ning": 6279,
      "▁parents": 6280,
      "aler": 6281,
      "▁font": 6282,
      "ppen": 6283,
      "jähr": 6284,
      "▁Auss": 6285,
      "ants,": 6286,
      "▁Pra": 6287,
      "▁Así": 6288,
      "schluss": 6289,
      "▁necesit": 6290,
      "▁Nor": 6291,
      "heure": 6292,
      "▁fro": 6293,
      "▁yourself": 6294,
      "▁compos": 6295,
      "▁empez": 6296,
      "▁También": 6297,
      "tar": 6298,
      "▁plaisir": 6299,
      "▁semble": 6300,
      "ols": 6301,
      "▁Hoch": 6302,
      "▁vue": 6303,
      "’hui": 6304,
      "▁bast": 6305,
      "▁[...]\n": 6306,
      "▁bajo": 6307,
      "▁Vide": 6308,
      "haf": 6309,
      "▁Ass": 6310,
      "▁research": 6311,
      "▁teach": 6312,
      "▁Freund": 6313,
      "▁jeu": 6314,
      "▁Blick": 6315,
      "▁Kosten": 6316,
      "uestra": 6317,
      "▁pregunt": 6318,
      "▁Geschichte": 6319,
      "▁called": 6320,
      "ivent": 6321,
      "▁podría": 6322,
      "▁said,": 6323,
      "▁Ke": 6324,
      "▁Après": 6325,
      "▁Augen": 6326,
      "▁españ": 6327,
      "griff": 6328,
      "▁merci": 6329,
      "anch": 6330,
      "▁April": 6331,
      "mals": 6332,
      "▁seems": 6333,
      "▁trait": 6334,
      "▁Konta": 6335,
      "▁message": 6336,
      "ación.\n": 6337,
      "leist": 6338,
      "▁Deut": 6339,
      "ismus": 6340,
      "bet": 6341,
      "▁init": 6342,
      "ight,": 6343,
      "▁maison": 6344,
      "▁données": 6345,
      "ène": 6346,
      "ibilité": 6347,
      "▁bist": 6348,
      "▁polic": 6349,
      "▁Comment": 6350,
      "▁Mittel": 6351,
      "▁n'ai": 6352,
      "▁future": 6353,
      "umn": 6354,
      "âce": 6355,
      "iento,": 6356,
      "z.": 6357,
      "▁cadre": 6358,
      "▁jeune": 6359,
      "▁vé": 6360,
      "▁können.\n": 6361,
      "▁After": 6362,
      "”.": 6363,
      "▁cann": 6364,
      "ists": 6365,
      "▁escrib": 6366,
      "▁libro": 6367,
      "▁Ten": 6368,
      "▁parler": 6369,
      "▁unas": 6370,
      "▁notamment": 6371,
      "▁devant": 6372,
      "glied": 6373,
      "is.": 6374,
      "▁Nicht": 6375,
      "▁tempor": 6376,
      "▁taking": 6377,
      "▁Ev": 6378,
      "▁\"M": 6379,
      "▁Von": 6380,
      "ig,": 6381,
      "atte": 6382,
      "▁seront": 6383,
      "▁Eltern": 6384,
      "▁n'y": 6385,
      "▁attention": 6386,
      "▁cantidad": 6387,
      "▁sau": 6388,
      "▁luego": 6389,
      "▁rá": 6390,
      "▁equipo": 6391,
      "▁porte": 6392,
      "▁proyecto": 6393,
      "ckt": 6394,
      "EL": 6395,
      "▁Abs.": 6396,
      "aime": 6397,
      "▁version": 6398,
      "▁économ": 6399,
      "▁plein": 6400,
      "▁expos": 6401,
      "cription": 6402,
      "▁Situ": 6403,
      "▁schl": 6404,
      "▁dice": 6405,
      "▁raison": 6406,
      "▁erreich": 6407,
      "fait": 6408,
      "re.": 6409,
      "▁innov": 6410,
      "▁Best": 6411,
      "▁arch": 6412,
      "▁(m": 6413,
      "▁Link": 6414,
      "ritt": 6415,
      "i.\n": 6416,
      "ia.\n": 6417,
      "▁hil": 6418,
      "timo": 6419,
      "▁haut": 6420,
      "▁pron": 6421,
      "tellen": 6422,
      "TA": 6423,
      "enter": 6424,
      "ony": 6425,
      "▁escrit": 6426,
      "▁ging": 6427,
      "▁pourrait": 6428,
      "bereit": 6429,
      "▁caracter": 6430,
      "▁Besuch": 6431,
      "IL": 6432,
      "ftrag": 6433,
      "▁kleinen": 6434,
      "▁sele": 6435,
      "'ve": 6436,
      "▁Reise": 6437,
      "▁entwick": 6438,
      "▁ed": 6439,
      "▁comer": 6440,
      "▁bill": 6441,
      "▁sociedad": 6442,
      "▁original": 6443,
      "rain": 6444,
      "▁Jugend": 6445,
      "▁eleg": 6446,
      "atos": 6447,
      "▁pas,": 6448,
      "▁Nun": 6449,
      "▁relacion": 6450,
      "▁aura": 6451,
      "▁Glück": 6452,
      "▁Krank": 6453,
      "▁yet": 6454,
      "▁couple": 6455,
      "▁bout": 6456,
      "▁étud": 6457,
      "▁Estados": 6458,
      "s\n": 6459,
      "▁sue": 6460,
      "val": 6461,
      "▁deal": 6462,
      "by": 6463,
      "▁time,": 6464,
      "▁años,": 6465,
      "▁TV": 6466,
      "▁largo": 6467,
      "▁défin": 6468,
      "onnement": 6469,
      "▁milit": 6470,
      "▁meses": 6471,
      "vision": 6472,
      "▁John": 6473,
      "▁falta": 6474,
      "▁Imp": 6475,
      "▁d’in": 6476,
      "érica": 6477,
      "▁pud": 6478,
      "▁kleine": 6479,
      "pas": 6480,
      "▁souha": 6481,
      "platz": 6482,
      "▁several": 6483,
      "▁apr": 6484,
      "▁Zum": 6485,
      ".,": 6486,
      "▁Seg": 6487,
      "▁action": 6488,
      "vest": 6489,
      "▁wegen": 6490,
      "▁mid": 6491,
      "ós": 6492,
      "tière": 6493,
      "cific": 6494,
      "▁trotz": 6495,
      "re.\n": 6496,
      "allen": 6497,
      "éro": 6498,
      "▁aucun": 6499,
      "▁rapid": 6500,
      "▁essay": 6501,
      "anos": 6502,
      "▁schwer": 6503,
      "bro": 6504,
      "▁Minister": 6505,
      "▁Musik": 6506,
      "gen.\n": 6507,
      "▁hold": 6508,
      "ospital": 6509,
      "▁you're": 6510,
      "▁lässt": 6511,
      "▁clos": 6512,
      "▁Red": 6513,
      "amed": 6514,
      "▁Ergeb": 6515,
      "▁direc": 6516,
      "▁state": 6517,
      "times": 6518,
      "yle": 6519,
      "ant.": 6520,
      "6.": 6521,
      "▁Verein": 6522,
      "èmes": 6523,
      "wahl": 6524,
      "ategor": 6525,
      "-même": 6526,
      "▁hac": 6527,
      "▁an.": 6528,
      "▁mejores": 6529,
      "▁amo": 6530,
      "▁consci": 6531,
      "▁conserv": 6532,
      "▁vit": 6533,
      "▁Beruf": 6534,
      "ola": 6535,
      "uien": 6536,
      "an.": 6537,
      "▁cabe": 6538,
      "load": 6539,
      "▁vic": 6540,
      "▁heure": 6541,
      "ht,": 6542,
      "ächlich": 6543,
      "▁cambio": 6544,
      "▁capacidad": 6545,
      "möglich": 6546,
      "▁Ko": 6547,
      "glieder": 6548,
      "▁Bien": 6549,
      "▁nega": 6550,
      "quel": 6551,
      "▁stru": 6552,
      "▁line": 6553,
      "leur": 6554,
      "ia.": 6555,
      ":1": 6556,
      "ales,": 6557,
      "▁popular": 6558,
      "ätzlich": 6559,
      "illet": 6560,
      "▁fit": 6561,
      "ül": 6562,
      "▁club": 6563,
      "▁„W": 6564,
      "inger": 6565,
      "ay,": 6566,
      "▁answer": 6567,
      "igur": 6568,
      "▁separ": 6569,
      "itable": 6570,
      "▁mad": 6571,
      "▁har": 6572,
      "▁semana": 6573,
      "▁given": 6574,
      "▁invol": 6575,
      "▁sagen": 6576,
      "olf": 6577,
      "tiful": 6578,
      "cident": 6579,
      "▁société": 6580,
      "▁Mär": 6581,
      "oca": 6582,
      "ctu": 6583,
      "▁of\n": 6584,
      "ence,": 6585,
      "orter": 6586,
      "▁poner": 6587,
      "ke,": 6588,
      "▁examp": 6589,
      "▁vier": 6590,
      "orge": 6591,
      "▁mediante": 6592,
      "yer": 6593,
      "▁Fach": 6594,
      "bung": 6595,
      "▁derechos": 6596,
      "▁verwend": 6597,
      "hö": 6598,
      "main": 6599,
      "itation": 6600,
      "▁whether": 6601,
      "▁elles": 6602,
      "▁remar": 6603,
      "orta": 6604,
      "▁extr": 6605,
      "▁concer": 6606,
      "▁béné": 6607,
      "tionen": 6608,
      "▁euros": 6609,
      "▁ey": 6610,
      "▁À": 6611,
      "activ": 6612,
      "zar": 6613,
      "ío": 6614,
      "hen.\n": 6615,
      "ilà": 6616,
      "▁Team": 6617,
      "▁vot": 6618,
      "▁culture": 6619,
      "▁million": 6620,
      "▁anyone": 6621,
      "!!\n": 6622,
      "▁ví": 6623,
      "▁adecu": 6624,
      "▁prend": 6625,
      "▁excell": 6626,
      "env": 6627,
      "rier": 6628,
      "▁bisher": 6629,
      "▁mayoría": 6630,
      "▁Tele": 6631,
      "▁bietet": 6632,
      "▁me,": 6633,
      "▁2008": 6634,
      "▁comenz": 6635,
      "▁série": 6636,
      "és.\n": 6637,
      "▁registr": 6638,
      "▁agen": 6639,
      "▁wird.\n": 6640,
      "▁Gesetz": 6641,
      "▁rép": 6642,
      "▁tut": 6643,
      "▁ang": 6644,
      "▁centro": 6645,
      "ized": 6646,
      "▁fueron": 6647,
      "▁Off": 6648,
      "▁envie": 6649,
      "undheit": 6650,
      "▁produit": 6651,
      "ichten": 6652,
      "▁sûr": 6653,
      "▁Hay": 6654,
      "aps": 6655,
      "▁Ak": 6656,
      "▁qu’elle": 6657,
      "▁hotel": 6658,
      "chtig": 6659,
      "▁government": 6660,
      "▁fís": 6661,
      "▁National": 6662,
      "▁almost": 6663,
      "▁garanti": 6664,
      "▁tenía": 6665,
      "loss": 6666,
      "▁pick": 6667,
      "▁news": 6668,
      "▁August": 6669,
      "osa": 6670,
      "▁treat": 6671,
      "▁and\n": 6672,
      "▁estamos": 6673,
      "▁digital": 6674,
      "▁Mai": 6675,
      "▁500": 6676,
      "▁35": 6677,
      "▁familiar": 6678,
      "quis": 6679,
      "▁tran": 6680,
      "▁speak": 6681,
      "▁EL": 6682,
      "▁créd": 6683,
      "▁story": 6684,
      "▁propor": 6685,
      "▁schreib": 6686,
      "9.": 6687,
      "▁Zug": 6688,
      "7.": 6689,
      "ling": 6690,
      "▁Cela": 6691,
      "▁“S": 6692,
      "▁(c": 6693,
      "ina,": 6694,
      "▁tradition": 6695,
      "▁sociales": 6696,
      "vez": 6697,
      "entlichen": 6698,
      "éis": 6699,
      "▁kn": 6700,
      "▁quo": 6701,
      "▁soon": 6702,
      "▁remember": 6703,
      "▁Grün": 6704,
      "▁qu’on": 6705,
      "▁veut": 6706,
      "▁introdu": 6707,
      "▁invers": 6708,
      "You": 6709,
      "▁sécurité": 6710,
      "ric": 6711,
      "crit": 6712,
      "▁seule": 6713,
      "▁Nacional": 6714,
      "▁pict": 6715,
      "▁zus": 6716,
      "ending": 6717,
      "cter": 6718,
      "▁gesag": 6719,
      "k,": 6720,
      "▁says": 6721,
      "▁puedo": 6722,
      "hat": 6723,
      "▁a\n": 6724,
      "-t-il": 6725,
      "indest": 6726,
      "▁apare": 6727,
      "▁Dein": 6728,
      "ash": 6729,
      "cier": 6730,
      "▁unterstütz": 6731,
      "▁eith": 6732,
      "▁dejar": 6733,
      "▁membres": 6734,
      "▁mand": 6735,
      "omin": 6736,
      "▁ejempl": 6737,
      "▁jusqu'": 6738,
      "eff": 6739,
      "▁“A": 6740,
      "▁stop": 6741,
      "ieg": 6742,
      "▁aim": 6743,
      "▁rather": 6744,
      "wach": 6745,
      "üd": 6746,
      "▁intéress": 6747,
      "reci": 6748,
      "▁sagte": 6749,
      "▁pot": 6750,
      "▁Zukunft": 6751,
      "ss": 6752,
      "▁Our": 6753,
      "ambre": 6754,
      "▁Vertrag": 6755,
      "▁clim": 6756,
      "▁Hel": 6757,
      "estiv": 6758,
      "▁ningún": 6759,
      "▁Far": 6760,
      "▁(n": 6761,
      "king": 6762,
      "▁wish": 6763,
      "▁lev": 6764,
      "▁hör": 6765,
      "eiten": 6766,
      "▁Mor": 6767,
      ".\"": 6768,
      "lossen": 6769,
      "inen": 6770,
      "▁members": 6771,
      "ie.\n": 6772,
      "▁klar": 6773,
      "ney": 6774,
      "str": 6775,
      "▁ejerci": 6776,
      "ífic": 6777,
      "▁Flug": 6778,
      "▁verst": 6779,
      "uales": 6780,
      "▁amor": 6781,
      "▁six": 6782,
      "▁cuanto": 6783,
      "ateurs": 6784,
      "▁mujeres": 6785,
      "▁segu": 6786,
      "▁women": 6787,
      "aire,": 6788,
      "bern": 6789,
      "▁Much": 6790,
      "▁dernière": 6791,
      "▁🙂\n": 6792,
      "▁needs": 6793,
      "▁above": 6794,
      "▁vend": 6795,
      "▁hatten": 6796,
      "▁alguien": 6797,
      "jahr": 6798,
      "▁intens": 6799,
      "▁áre": 6800,
      "▁liber": 6801,
      "▁setz": 6802,
      "▁stay": 6803,
      "▁Liebe": 6804,
      "▁nehmen": 6805,
      "▁incluy": 6806,
      "▁près": 6807,
      "▁myself": 6808,
      "new": 6809,
      "▁espec": 6810,
      "▁Dich": 6811,
      "antage": 6812,
      "▁edad": 6813,
      "d.": 6814,
      "▁Jus": 6815,
      "▁dès": 6816,
      "▁Uns": 6817,
      "▁Ort": 6818,
      "schaften": 6819,
      "▁\"H": 6820,
      "et.\n": 6821,
      "ibr": 6822,
      "▁l’A": 6823,
      "ications": 6824,
      "▁Jahres": 6825,
      "▁femme": 6826,
      "hib": 6827,
      "▁forme": 6828,
      "▁dirig": 6829,
      "▁appear": 6830,
      "achten": 6831,
      "▁fac": 6832,
      "▁Tour": 6833,
      "▁pueda": 6834,
      "les,": 6835,
      "▁others": 6836,
      "▁Proble": 6837,
      "peratur": 6838,
      "▁Gob": 6839,
      "▁^^": 6840,
      "▁across": 6841,
      "▁formation": 6842,
      "▁neu": 6843,
      "the": 6844,
      "▁However,": 6845,
      "▁tema": 6846,
      "▁ayuda": 6847,
      "▁Wissen": 6848,
      "▁habl": 6849,
      "▁erre": 6850,
      "▁Dé": 6851,
      "▁Anfang": 6852,
      "▁fich": 6853,
      "ätze": 6854,
      "mobil": 6855,
      "▁consult": 6856,
      "▁étaient": 6857,
      "fit": 6858,
      "fica": 6859,
      "▁qu'ils": 6860,
      "▁tête": 6861,
      "▁ocas": 6862,
      "erta": 6863,
      "▁Buen": 6864,
      "▁podrá": 6865,
      "▁Dabei": 6866,
      "tex": 6867,
      "AC": 6868,
      "reu": 6869,
      "▁schein": 6870,
      "▁Ces": 6871,
      "▁nice": 6872,
      "▁Alors": 6873,
      "ands": 6874,
      "ly.": 6875,
      "▁objetivo": 6876,
      "▁ideas": 6877,
      "▁half": 6878,
      "II": 6879,
      "▁Test": 6880,
      "aring": 6881,
      "▁search": 6882,
      "▁Pal": 6883,
      "cia,": 6884,
      "▁jusqu’": 6885,
      "▁Personen": 6886,
      "omas": 6887,
      "áb": 6888,
      "▁Feb": 6889,
      "▁196": 6890,
      "▁jedem": 6891,
      "▁spécial": 6892,
      "▁Nord": 6893,
      "▁Gemein": 6894,
      "feld": 6895,
      "liches": 6896,
      "▁Mé": 6897,
      "▁müss": 6898,
      "rement": 6899,
      "▁mur": 6900,
      "▁diffici": 6901,
      "▁Sm": 6902,
      "▁distint": 6903,
      "▁cool": 6904,
      "▁warum": 6905,
      "▁europé": 6906,
      "▁psych": 6907,
      "▁Män": 6908,
      "ierra": 6909,
      "▁funktion": 6910,
      "nd": 6911,
      "▁conver": 6912,
      "▁Sport": 6913,
      "▁pourra": 6914,
      "▁sofort": 6915,
      "▁l'in": 6916,
      "prises": 6917,
      "▁Maß": 6918,
      "▁chac": 6919,
      "▁loin": 6920,
      "▁accep": 6921,
      "ancial": 6922,
      "▁Kr": 6923,
      "uments": 6924,
      "▁tomar": 6925,
      "▁wollte": 6926,
      "rodu": 6927,
      "chs": 6928,
      "▁semaine": 6929,
      "▁d’autres": 6930,
      "▁march": 6931,
      "▁cut": 6932,
      "▁Ir": 6933,
      "▁Ré": 6934,
      "▁reserv": 6935,
      "▁aurait": 6936,
      "▁fisc": 6937,
      "▁that,": 6938,
      "▁music": 6939,
      "▁soy": 6940,
      "▁force": 6941,
      "▁réuss": 6942,
      "▁líne": 6943,
      "avait": 6944,
      "ture": 6945,
      "▁siendo": 6946,
      "ames": 6947,
      "bildung": 6948,
      "anten": 6949,
      "▁Abend": 6950,
      "ötig": 6951,
      "▁Cr": 6952,
      "▁überhaupt": 6953,
      "gaben": 6954,
      "▁reun": 6955,
      "▁nav": 6956,
      "▁daher": 6957,
      "▁jue": 6958,
      "▁aus,": 6959,
      "▁rédu": 6960,
      "▁fundament": 6961,
      "▁glaub": 6962,
      "▁gek": 6963,
      "▁Ave": 6964,
      "▁d'autres": 6965,
      "▁See": 6966,
      "▁Ju": 6967,
      "▁exclus": 6968,
      "-h": 6969,
      "timent": 6970,
      "▁venir": 6971,
      "▁demás": 6972,
      "▁7.": 6973,
      "▁System": 6974,
      "▁paso": 6975,
      "bol": 6976,
      "▁piè": 6977,
      "▁didn’t": 6978,
      "side": 6979,
      "▁erwar": 6980,
      "▁“L": 6981,
      "▁trava": 6982,
      "▁Ze": 6983,
      "▁application": 6984,
      "IE": 6985,
      "▁\"B": 6986,
      "ktur": 6987,
      "cide": 6988,
      "embl": 6989,
      "äu": 6990,
      "▁ago": 6991,
      "cuper": 6992,
      "▁CON": 6993,
      "ationen": 6994,
      "éch": 6995,
      "▁Service": 6996,
      "▁cook": 6997,
      "▁développement": 6998,
      "▁Social": 6999,
      "▁press": 7000,
      "is.\n": 7001,
      "isen": 7002,
      "▁lad": 7003,
      "▁señal": 7004,
      "zw": 7005,
      "▁Russ": 7006,
      "'hui": 7007,
      "▁bi": 7008,
      "▁auss": 7009,
      "▁gouver": 7010,
      "25": 7011,
      "usion": 7012,
      "▁miem": 7013,
      "▁m'a": 7014,
      "▁signific": 7015,
      "▁¿Qué": 7016,
      "▁coming": 7017,
      "▁regular": 7018,
      "▁create": 7019,
      "▁leave": 7020,
      "▁innerhalb": 7021,
      "▁confl": 7022,
      "▁sho": 7023,
      "nent": 7024,
      "▁forward": 7025,
      "▁écrit": 7026,
      "▁photo": 7027,
      "S.": 7028,
      "▁Richt": 7029,
      "▁unterschied": 7030,
      "-dess": 7031,
      "▁encuentra": 7032,
      "▁lado": 7033,
      "▁asegur": 7034,
      "▁Av": 7035,
      "▁máxim": 7036,
      "▁later": 7037,
      "▁llevar": 7038,
      "▁vin": 7039,
      "8.": 7040,
      "▁Recht": 7041,
      "▁amaz": 7042,
      "▁rése": 7043,
      "stück": 7044,
      "gré": 7045,
      "▁l'a": 7046,
      "▁Ag": 7047,
      "ant.\n": 7048,
      "▁Sto": 7049,
      "45": 7050,
      "▁Tw": 7051,
      "▁impos": 7052,
      "hem": 7053,
      "▁lorsque": 7054,
      "▁evalu": 7055,
      "▁Politik": 7056,
      "onne": 7057,
      "ailleurs": 7058,
      "▁recomend": 7059,
      "gen,": 7060,
      "ultur": 7061,
      "▁Ru": 7062,
      "▁Stunden": 7063,
      "▁agu": 7064,
      "▁Cer": 7065,
      "▁so,": 7066,
      "▁asked": 7067,
      "▁3,": 7068,
      "▁l’on": 7069,
      "▁remo": 7070,
      "hés": 7071,
      "▁declar": 7072,
      "▁Val": 7073,
      "ällt": 7074,
      "▁varios": 7075,
      "dress": 7076,
      "▁travers": 7077,
      "-3": 7078,
      "▁enfermed": 7079,
      "▁happy": 7080,
      "▁community": 7081,
      "ources": 7082,
      "öffentlich": 7083,
      "accord": 7084,
      "▁distribu": 7085,
      "▁Auto": 7086,
      "es\n": 7087,
      "▁combin": 7088,
      "iale": 7089,
      "▁Act": 7090,
      "verst": 7091,
      "▁resultados": 7092,
      "▁correct": 7093,
      "▁contrib": 7094,
      "▁Dienst": 7095,
      "▁permite": 7096,
      "▁text": 7097,
      "▁offen": 7098,
      "ress": 7099,
      "ächst": 7100,
      "▁Spaß": 7101,
      "icidad": 7102,
      "g.": 7103,
      "wirk": 7104,
      "outer": 7105,
      "▁Fern": 7106,
      "▁eje": 7107,
      "▁front": 7108,
      "▁recommend": 7109,
      "▁déta": 7110,
      "▁Dav": 7111,
      "ourn": 7112,
      "▁éch": 7113,
      "▁hig": 7114,
      "▁=": 7115,
      "▁parc": 7116,
      "▁expe": 7117,
      "mi": 7118,
      "▁sitio": 7119,
      "▁Bilder": 7120,
      "▁evitar": 7121,
      "wes": 7122,
      "tiert": 7123,
      "guir": 7124,
      "▁Dios": 7125,
      "▁transport": 7126,
      "▁Beg": 7127,
      "▁affe": 7128,
      "▁Tro": 7129,
      "▁prefer": 7130,
      "▁realidad": 7131,
      "▁établ": 7132,
      "where": 7133,
      "▁looks": 7134,
      "▁qu’ils": 7135,
      "▁Lös": 7136,
      "▁Mitarbeiter": 7137,
      "▁tor": 7138,
      "▁passé": 7139,
      "▁Mer": 7140,
      "▁Rom": 7141,
      "▁prépar": 7142,
      "imon": 7143,
      "aby": 7144,
      "▁Bro": 7145,
      "▁parl": 7146,
      "▁nombreux": 7147,
      "ge.": 7148,
      "aine": 7149,
      "▁beautiful": 7150,
      "-N": 7151,
      "oper": 7152,
      "▁tir": 7153,
      "▁Ihrem": 7154,
      "was": 7155,
      "▁Estado": 7156,
      "▁reach": 7157,
      "▁ged": 7158,
      "fa": 7159,
      "chsel": 7160,
      "▁sind.\n": 7161,
      "zü": 7162,
      ",”": 7163,
      "uellen": 7164,
      "▁low": 7165,
      "bereich": 7166,
      "lation": 7167,
      "▁Veranst": 7168,
      "▁Art.": 7169,
      "ÓN": 7170,
      "▁Esto": 7171,
      "▁Let": 7172,
      "ya": 7173,
      "▁heart": 7174,
      "▁Ya": 7175,
      "gé": 7176,
      "▁articles": 7177,
      "année": 7178,
      "utr": 7179,
      "▁RE": 7180,
      "):": 7181,
      "oden": 7182,
      "pol": 7183,
      "▁Finanz": 7184,
      "ienda": 7185,
      "iciones": 7186,
      "▁can’t": 7187,
      "▁model": 7188,
      "▁kaum": 7189,
      "▁review": 7190,
      "▁bastante": 7191,
      "fil": 7192,
      "▁offic": 7193,
      "▁production": 7194,
      "▁propr": 7195,
      "▁pasar": 7196,
      "▁sentir": 7197,
      "▁reading": 7198,
      "iled": 7199,
      "▁ign": 7200,
      "▁necess": 7201,
      "ramient": 7202,
      "izo": 7203,
      "▁insurance": 7204,
      "▁Plus": 7205,
      "itor": 7206,
      "icken": 7207,
      "▁Leute": 7208,
      "▁politique": 7209,
      "▁Familie": 7210,
      "▁statt": 7211,
      "▁moi,": 7212,
      "onom": 7213,
      "▁simply": 7214,
      "▁forum": 7215,
      "▁países": 7216,
      "▁verm": 7217,
      "istoire": 7218,
      "▁Of": 7219,
      "▁virt": 7220,
      "▁ans,": 7221,
      "▁Eng": 7222,
      "étais": 7223,
      "entiel": 7224,
      "pped": 7225,
      "▁Wirtschaft": 7226,
      "▁aplicación": 7227,
      ".de": 7228,
      "tiz": 7229,
      "▁stuff": 7230,
      "▁subject": 7231,
      "▁lern": 7232,
      "zep": 7233,
      "ordnung": 7234,
      "▁Nos": 7235,
      "▁trib": 7236,
      "▁respecto": 7237,
      "▁pack": 7238,
      "▁Hum": 7239,
      "▁casos": 7240,
      "▁morn": 7241,
      "▁Publ": 7242,
      "▁zona": 7243,
      "▁kann.\n": 7244,
      "▁doivent": 7245,
      "▁tele": 7246,
      "tober": 7247,
      "▁protection": 7248,
      "▁lire": 7249,
      "▁http://www.": 7250,
      "▁students": 7251,
      "▁leer": 7252,
      "▁conform": 7253,
      "▁utilizar": 7254,
      "▁nuit": 7255,
      "▁frente": 7256,
      "▁Kopf": 7257,
      "▁body": 7258,
      "▁require": 7259,
      "führung": 7260,
      "ada.\n": 7261,
      "▁impact": 7262,
      "▁bekommen": 7263,
      "▁écr": 7264,
      "▁focus": 7265,
      "▁Europa": 7266,
      "▁Prin": 7267,
      "▁vidé": 7268,
      "lang": 7269,
      "aux,": 7270,
      "▁heures": 7271,
      "ièrement": 7272,
      "▁autour": 7273,
      "▁taken": 7274,
      "-in": 7275,
      "80": 7276,
      "▁Erfolg": 7277,
      "besondere": 7278,
      "orf": 7279,
      "▁mercado": 7280,
      "irá": 7281,
      "▁based": 7282,
      "▁pose": 7283,
      "adem": 7284,
      "▁Tre": 7285,
      "▁Febru": 7286,
      "tieren": 7287,
      "▁conj": 7288,
      "hnt": 7289,
      "▁paí": 7290,
      "▁difí": 7291,
      "intér": 7292,
      "iving": 7293,
      "▁Port": 7294,
      "▁Beitrag": 7295,
      "▁propose": 7296,
      "gän": 7297,
      "▁solche": 7298,
      "▁atra": 7299,
      "▁vient": 7300,
      "▁Mi": 7301,
      "▁marketing": 7302,
      "▁trou": 7303,
      "▁â": 7304,
      "▁45": 7305,
      "▁self": 7306,
      "▁Geschäfts": 7307,
      "▁Körper": 7308,
      "▁Cap": 7309,
      "usst": 7310,
      "▁Wahr": 7311,
      "▁Entwicklung": 7312,
      "▁plus,": 7313,
      "▁Mün": 7314,
      "will": 7315,
      "▁upon": 7316,
      "▁extrem": 7317,
      "back": 7318,
      "▁kil": 7319,
      "stitu": 7320,
      "das": 7321,
      "▁circ": 7322,
      "▁nu": 7323,
      "▁Nur": 7324,
      "▁haben.\n": 7325,
      "▁Kauf": 7326,
      "though": 7327,
      "▁Kap": 7328,
      "tat": 7329,
      "ocup": 7330,
      "▁proc": 7331,
      "▁Mil": 7332,
      "iety": 7333,
      "▁reven": 7334,
      "▁explo": 7335,
      "▁Mag": 7336,
      "▁sean": 7337,
      "▁aquel": 7338,
      "▁moder": 7339,
      "▁(en": 7340,
      "porte": 7341,
      "ton": 7342,
      "▁profesion": 7343,
      "ival": 7344,
      "▁Groß": 7345,
      "▁territor": 7346,
      "nel": 7347,
      "▁avis": 7348,
      "▁santé": 7349,
      "▁d’ex": 7350,
      "▁Desde": 7351,
      "▁tats": 7352,
      "▁hours": 7353,
      "▁informations": 7354,
      "▁TO": 7355,
      "▁ingres": 7356,
      "ikan": 7357,
      "▁author": 7358,
      "▁Produkt": 7359,
      "iten": 7360,
      "▁especially": 7361,
      "prim": 7362,
      "▁sites": 7363,
      "▁practic": 7364,
      "este": 7365,
      "▁guten": 7366,
      "uvre": 7367,
      "▁l'on": 7368,
      "▁genre": 7369,
      "▁cuatro": 7370,
      "▁nuestras": 7371,
      "▁Met": 7372,
      "inos": 7373,
      "usement": 7374,
      "▁claim": 7375,
      "▁\"C": 7376,
      "▁cuerpo": 7377,
      "▁millions": 7378,
      "▁Einz": 7379,
      "▁significa": 7380,
      "▁below": 7381,
      "▁quar": 7382,
      "itch": 7383,
      "enseign": 7384,
      "▁stra": 7385,
      "▁recursos": 7386,
      "▁Rad": 7387,
      "▁zeig": 7388,
      "-elle": 7389,
      "▁hour": 7390,
      "room": 7391,
      "▁verg": 7392,
      "▁esos": 7393,
      "▁villa": 7394,
      "▁Tür": 7395,
      "▁aprend": 7396,
      "appl": 7397,
      "▁wrong": 7398,
      "▁engag": 7399,
      "ips": 7400,
      "gru": 7401,
      "▁consecu": 7402,
      "▁hablar": 7403,
      "▁band": 7404,
      "genommen": 7405,
      "▁heard": 7406,
      "espère": 7407,
      "aison": 7408,
      "▁d’être": 7409,
      "▁nacional": 7410,
      "▁origin": 7411,
      "▁mús": 7412,
      "▁fühl": 7413,
      "anden": 7414,
      "▁Funk": 7415,
      "▁bevor": 7416,
      "▁jan": 7417,
      "rument": 7418,
      "▁saw": 7419,
      "▁Film": 7420,
      "▁d'être": 7421,
      "sam": 7422,
      "▁section": 7423,
      "▁sagt": 7424,
      "élior": 7425,
      "raum": 7426,
      "▁grâce": 7427,
      "▁expert": 7428,
      "▁página": 7429,
      "icherung": 7430,
      "▁eigene": 7431,
      "▁me.": 7432,
      "▁early": 7433,
      "einander": 7434,
      "▁sole": 7435,
      "▁tercer": 7436,
      "▁worth": 7437,
      "▁mañ": 7438,
      "▁desta": 7439,
      "▁global": 7440,
      "ár": 7441,
      "▁revis": 7442,
      "▁Projekt": 7443,
      "▁gesam": 7444,
      "▁Oktober": 7445,
      "▁laisser": 7446,
      "▁comprendre": 7447,
      "▁appel": 7448,
      "▁Gre": 7449,
      "▁precis": 7450,
      "fore": 7451,
      "▁Hab": 7452,
      "▁dol": 7453,
      "▁risque": 7454,
      "éré": 7455,
      "iate": 7456,
      "▁lien": 7457,
      "cionar": 7458,
      "▁escuch": 7459,
      "▁einzel": 7460,
      "▁electrón": 7461,
      "▁bleibt": 7462,
      "itel": 7463,
      "▁issue": 7464,
      "üler": 7465,
      "▁afect": 7466,
      "21": 7467,
      "▁neben": 7468,
      "▁entidad": 7469,
      "face": 7470,
      "▁Haupt": 7471,
      "indung": 7472,
      "▁pad": 7473,
      "creto": 7474,
      "alog": 7475,
      "ículos": 7476,
      "▁months": 7477,
      "iode": 7478,
      "▁petits": 7479,
      "welt": 7480,
      "▁\"N": 7481,
      "▁herramient": 7482,
      "icios": 7483,
      "▁centre": 7484,
      "▁close": 7485,
      "lungs": 7486,
      "▁marché": 7487,
      "hait": 7488,
      "tivas": 7489,
      "▁mesure": 7490,
      "▁quality": 7491,
      "▁b)": 7492,
      "itif": 7493,
      "arme": 7494,
      "▁friends": 7495,
      "▁hö": 7496,
      "enf": 7497,
      "▁Netz": 7498,
      "▁communication": 7499,
      "▁erfolgreich": 7500,
      "iligen": 7501,
      "rad": 7502,
      "zeitig": 7503,
      "▁fehl": 7504,
      "▁puiss": 7505,
      "▁dedic": 7506,
      "▁address": 7507,
      "▁vista": 7508,
      "▁Lin": 7509,
      "geber": 7510,
      "▁Bank": 7511,
      "▁Hilfe": 7512,
      "▁programme": 7513,
      "▁Fehl": 7514,
      "▁ejemplo": 7515,
      "▁acceso": 7516,
      "▁to\n": 7517,
      "▁hi": 7518,
      "▁Bis": 7519,
      "▁instru": 7520,
      "o\n": 7521,
      "e.\n": 7522,
      "▁Pap": 7523,
      "▁d'in": 7524,
      "GB": 7525,
      "IM": 7526,
      "▁AN": 7527,
      "▁Fa": 7528,
      "▁sein.\n": 7529,
      "▁Gesellschaft": 7530,
      "▁domin": 7531,
      "▁boy": 7532,
      "▁„S": 7533,
      "ole": 7534,
      "▁(p": 7535,
      "▁complet": 7536,
      "▁influen": 7537,
      "▁mic": 7538,
      "▁décembre": 7539,
      "vin": 7540,
      "▁ale": 7541,
      "▁Mitglied": 7542,
      "▁cues": 7543,
      "▁mism": 7544,
      "▁sell": 7545,
      "oria": 7546,
      "ministration": 7547,
      "▁Rel": 7548,
      ".com/": 7549,
      "▁Dez": 7550,
      "▁Millionen": 7551,
      "▁titre": 7552,
      "ox": 7553,
      "able.\n": 7554,
      "▁champ": 7555,
      "tellt": 7556,
      "▁dinero": 7557,
      "sk": 7558,
      "▁agre": 7559,
      "▁entire": 7560,
      "▁Main": 7561,
      "estens": 7562,
      "▁nouvelles": 7563,
      "▁schaff": 7564,
      "ived": 7565,
      "érience": 7566,
      "ficiente": 7567,
      "▁precio": 7568,
      "▁Minuten": 7569,
      "▁leicht": 7570,
      "èle": 7571,
      "▁likely": 7572,
      "▁Park": 7573,
      "▁paci": 7574,
      "▁souhait": 7575,
      "▁(F": 7576,
      "▁absolut": 7577,
      "ensemble": 7578,
      "d,": 7579,
      "▁rendre": 7580,
      "isches": 7581,
      "▁writing": 7582,
      "▁janvier": 7583,
      "▁nuevas": 7584,
      "▁comunicación": 7585,
      "▁noche": 7586,
      "idad.\n": 7587,
      "▁attra": 7588,
      "▁move": 7589,
      "▁aucune": 7590,
      "▁anci": 7591,
      "hy": 7592,
      "▁anders": 7593,
      "an.\n": 7594,
      "▁touch": 7595,
      "▁abge": 7596,
      "▁découvrir": 7597,
      "ties": 7598,
      "▁syn": 7599,
      "▁Sach": 7600,
      "▁pil": 7601,
      "▁option": 7602,
      "▁dicho": 7603,
      "▁describ": 7604,
      "▁journée": 7605,
      "▁quiero": 7606,
      "ido,": 7607,
      "▁simplement": 7608,
      "▁300": 7609,
      "▁preocup": 7610,
      "uve": 7611,
      "▁rencontr": 7612,
      "▁Energie": 7613,
      "▁Please": 7614,
      "lock": 7615,
      "▁longtemp": 7616,
      "mine": 7617,
      "▁country": 7618,
      "▁looked": 7619,
      "▁équip": 7620,
      "▁vite": 7621,
      "▁cannot": 7622,
      "▁Dieser": 7623,
      "▁jede": 7624,
      "▁Parte": 7625,
      "bros": 7626,
      "▁Damit": 7627,
      "one,": 7628,
      "ts.": 7629,
      "▁Oh": 7630,
      "▁regar": 7631,
      "duca": 7632,
      "va": 7633,
      "íamos": 7634,
      "▁etc.\n": 7635,
      "▁kauf": 7636,
      "▁mission": 7637,
      "▁clients": 7638,
      "▁hinaus": 7639,
      "▁Quand": 7640,
      "▁weg": 7641,
      "voir": 7642,
      "▁five": 7643,
      "▁leng": 7644,
      "tifs": 7645,
      "▁verschiedenen": 7646,
      "▁erforder": 7647,
      "▁doute": 7648,
      "▁wes": 7649,
      "▁besteht": 7650,
      "ensa": 7651,
      "ría": 7652,
      "▁livre": 7653,
      "▁crear": 7654,
      "▁AL": 7655,
      "iqué": 7656,
      "▁deutschen": 7657,
      "▁secret": 7658,
      "▁tér": 7659,
      "▁ouv": 7660,
      "uth": 7661,
      "▁a)": 7662,
      "leep": 7663,
      "▁autant": 7664,
      "quelle": 7665,
      "zimmer": 7666,
      "arnos": 7667,
      "▁Weiter": 7668,
      "▁erkenn": 7669,
      "▁conseguir": 7670,
      "▁Wert": 7671,
      "▁né": 7672,
      "▁familia": 7673,
      "redit": 7674,
      "ode": 7675,
      "wendung": 7676,
      "▁erw": 7677,
      "rent": 7678,
      "▁1er": 7679,
      "▁verd": 7680,
      "▁that's": 7681,
      "▁Bürger": 7682,
      "▁medios": 7683,
      "éma": 7684,
      "▁(T": 7685,
      "▁Además,": 7686,
      "▁write": 7687,
      "▁quant": 7688,
      "▁true": 7689,
      "▁area": 7690,
      "▁doesn't": 7691,
      "▁Anspr": 7692,
      "▁Markt": 7693,
      "▁homme": 7694,
      "▁terr": 7695,
      "▁oben": 7696,
      "▁you.": 7697,
      "▁ganzen": 7698,
      "▁bege": 7699,
      "▁Phil": 7700,
      "atten": 7701,
      "▁Gracias": 7702,
      "▁8.": 7703,
      "▁Get": 7704,
      "ît": 7705,
      "▁unique": 7706,
      "▁budget": 7707,
      "▁gobierno": 7708,
      "ter.": 7709,
      "timmung": 7710,
      "äglich": 7711,
      "zuf": 7712,
      "▁caract": 7713,
      "heiten": 7714,
      "▁inj": 7715,
      "▁Jap": 7716,
      "▁Schla": 7717,
      "▁sonst": 7718,
      "▁Lehr": 7719,
      "▁és": 7720,
      "▁incor": 7721,
      "▁année": 7722,
      "rael": 7723,
      "▁Mot": 7724,
      "▁Schweiz": 7725,
      "bé": 7726,
      "▁Bra": 7727,
      "▁frü": 7728,
      "▁c'était": 7729,
      "f.": 7730,
      "és.": 7731,
      "tives": 7732,
      "äus": 7733,
      "▁I'll": 7734,
      "irit": 7735,
      "▁volver": 7736,
      "istro": 7737,
      "▁ant": 7738,
      "▁dér": 7739,
      "iza": 7740,
      "▁probable": 7741,
      "▁risk": 7742,
      "▁rein": 7743,
      "icado": 7744,
      "ificación": 7745,
      "eits": 7746,
      "ieren.\n": 7747,
      "▁Abs": 7748,
      "▁sust": 7749,
      "▁público": 7750,
      "▁direction": 7751,
      "arbeitung": 7752,
      "▁disponible": 7753,
      "▁gemach": 7754,
      "▁beso": 7755,
      "aines": 7756,
      "suite": 7757,
      "▁install": 7758,
      "▁sir": 7759,
      "adas,": 7760,
      "▁opp": 7761,
      "▁strong": 7762,
      "▁Nat": 7763,
      "iest": 7764,
      "▁IS": 7765,
      "▁Urlaub": 7766,
      "tag,": 7767,
      "▁suppl": 7768,
      "aterial": 7769,
      "▁longer": 7770,
      "iat": 7771,
      "▁Kön": 7772,
      "Ich": 7773,
      "▁mobil": 7774,
      "▁Webs": 7775,
      "▁that’s": 7776,
      "▁contribu": 7777,
      "-up": 7778,
      "▁Dezember": 7779,
      "▁fore": 7780,
      "í,": 7781,
      "▁scre": 7782,
      "▁prise": 7783,
      "▁Raum": 7784,
      "cipl": 7785,
      "▁known": 7786,
      "▁gegenüber": 7787,
      "▁Paris": 7788,
      "▁niñ": 7789,
      "ging": 7790,
      "▁angeb": 7791,
      "iquement": 7792,
      "▁cabo": 7793,
      "▁entscheid": 7794,
      "ihn": 7795,
      "ämp": 7796,
      "▁orient": 7797,
      "leben": 7798,
      "▁lum": 7799,
      "ciales": 7800,
      "▁Kin": 7801,
      "▁Namen": 7802,
      "▁befind": 7803,
      "▁Gesundheit": 7804,
      "▁cas,": 7805,
      "▁ti": 7806,
      "▁Trump": 7807,
      "lassen": 7808,
      "▁n’y": 7809,
      "Es": 7810,
      "-y": 7811,
      "A,": 7812,
      "ctobre": 7813,
      "▁Bad": 7814,
      "▁100%": 7815,
      "▁pob": 7816,
      "▁medic": 7817,
      "▁Website": 7818,
      "id,": 7819,
      "▁nadie": 7820,
      "▁vamos": 7821,
      "ticia": 7822,
      "▁jard": 7823,
      "▁imagin": 7824,
      "ète": 7825,
      "▁tú": 7826,
      "▁réponse": 7827,
      "▁compris": 7828,
      "ies.": 7829,
      "▁Unternehm": 7830,
      "üche": 7831,
      "▁principales": 7832,
      "ors,": 7833,
      "üssel": 7834,
      "▁sense": 7835,
      "▁CD": 7836,
      "▁Fuß": 7837,
      "▁gehört": 7838,
      "▁Gott": 7839,
      "▁necesidad": 7840,
      "▁espacio": 7841,
      "▁Wort": 7842,
      "▁entfern": 7843,
      "▁(H": 7844,
      "tet,": 7845,
      "▁\"P": 7846,
      "-J": 7847,
      "ció": 7848,
      "▁deshalb": 7849,
      "▁precios": 7850,
      "üns": 7851,
      "▁Tagen": 7852,
      "UL": 7853,
      "aur": 7854,
      "▁garant": 7855,
      "▁barr": 7856,
      "▁ebenfalls": 7857,
      "spiel": 7858,
      "▁certaines": 7859,
      "▁schließ": 7860,
      "▁hacen": 7861,
      "schul": 7862,
      "▁incon": 7863,
      "▁mín": 7864,
      "▁indem": 7865,
      "▁accomp": 7866,
      "▁cort": 7867,
      "▁corps": 7868,
      "io.": 7869,
      "indows": 7870,
      "▁exemple": 7871,
      "▁genug": 7872,
      "wards": 7873,
      "▁producto": 7874,
      "▁(b": 7875,
      "äsident": 7876,
      "▁send": 7877,
      "▁sería": 7878,
      "fico": 7879,
      "▁zie": 7880,
      "▁city": 7881,
      "▁région": 7882,
      "adurch": 7883,
      "-U": 7884,
      "iday": 7885,
      "▁effet": 7886,
      "ins,": 7887,
      "▁Zimmer": 7888,
      "cidos": 7889,
      "▁Any": 7890,
      "▁Jetzt": 7891,
      "öll": 7892,
      "▁assist": 7893,
      "▁übers": 7894,
      "▁key": 7895,
      "ienne": 7896,
      "▁dispar": 7897,
      "▁Lors": 7898,
      "fully": 7899,
      "ctr": 7900,
      "▁😉": 7901,
      "fas": 7902,
      "▁include": 7903,
      "▁Gobierno": 7904,
      "ent.": 7905,
      "▁Tex": 7906,
      "▁entonces": 7907,
      "▁liter": 7908,
      "11": 7909,
      "▁Ed": 7910,
      "▁source": 7911,
      "▁Meine": 7912,
      "ären": 7913,
      "Re": 7914,
      "▁2007": 7915,
      "né": 7916,
      "▁neues": 7917,
      "▁either": 7918,
      "in.\n": 7919,
      "▁z.B.": 7920,
      "io.\n": 7921,
      "▁acom": 7922,
      "aja": 7923,
      "prit": 7924,
      "▁reç": 7925,
      "▁inm": 7926,
      "ieb": 7927,
      "▁worden": 7928,
      "▁superior": 7929,
      "▁Market": 7930,
      "ark": 7931,
      "▁mejorar": 7932,
      "▁gestión": 7933,
      "aup": 7934,
      "▁bieten": 7935,
      "auvais": 7936,
      "▁nuevos": 7937,
      "▁trip": 7938,
      "able.": 7939,
      "▁Priv": 7940,
      "▁Post": 7941,
      "legt": 7942,
      "▁Avec": 7943,
      "▁nécessaire": 7944,
      "▁plat": 7945,
      "▁fünf": 7946,
      "ados.\n": 7947,
      "▁deutlich": 7948,
      "ísticas": 7949,
      "▁rob": 7950,
      "▁verw": 7951,
      "ève": 7952,
      "alité": 7953,
      "?\"": 7954,
      "jar": 7955,
      "▁enfin": 7956,
      "▁l'A": 7957,
      "bezogen": 7958,
      "▁gesetz": 7959,
      "ón,": 7960,
      "▁space": 7961,
      "▁purch": 7962,
      "▁Angebot": 7963,
      "▁staff": 7964,
      "▁hat.\n": 7965,
      "come": 7966,
      "▁doesn’t": 7967,
      "ancer": 7968,
      "▁hy": 7969,
      "ündig": 7970,
      "▁rat": 7971,
      "reif": 7972,
      "▁».\n": 7973,
      "▁price": 7974,
      "▁parfois": 7975,
      "▁ayant": 7976,
      "▁strateg": 7977,
      "▁hospital": 7978,
      "▁respuesta": 7979,
      "▁sept": 7980,
      "ingungen": 7981,
      "roffen": 7982,
      "▁seguro": 7983,
      "fäl": 7984,
      "chmal": 7985,
      "-0": 7986,
      "▁Ele": 7987,
      "▁current": 7988,
      "buch": 7989,
      "▁single": 7990,
      "▁Euch": 7991,
      "▁Sommer": 7992,
      "▁tab": 7993,
      "▁Pet": 7994,
      "äftig": 7995,
      "▁medidas": 7996,
      "▁ul": 7997,
      "▁legis": 7998,
      "here": 7999,
      "▁police": 8000,
      "▁Kontakt": 8001,
      "▁Höhe": 8002,
      "▁value": 8003,
      "▁Mart": 8004,
      "▁Tipp": 8005,
      "▁Nä": 8006,
      "▁His": 8007,
      "ured": 8008,
      "▁10.": 8009,
      "▁s’est": 8010,
      "▁Méx": 8011,
      "▁knew": 8012,
      "▁positive": 8013,
      "agner": 8014,
      "issen,": 8015,
      "▁(1)": 8016,
      "zas": 8017,
      "iber": 8018,
      "▁..": 8019,
      "▁Sen": 8020,
      "▁président": 8021,
      "ide,": 8022,
      "▁sait": 8023,
      "cing": 8024,
      "▁Außer": 8025,
      "ctubre": 8026,
      "▁bere": 8027,
      "▁musste": 8028,
      "▁death": 8029,
      "▁sollen": 8030,
      "▁puesto": 8031,
      "geh": 8032,
      "itely": 8033,
      "▁Lond": 8034,
      "▁cuales": 8035,
      "▁sexual": 8036,
      "▁rester": 8037,
      "▁quienes": 8038,
      "ps://": 8039,
      "▁guard": 8040,
      "▁Mitglieder": 8041,
      "▁Landes": 8042,
      "▁s'est": 8043,
      "▁(4": 8044,
      "▁ub": 8045,
      "▁últimos": 8046,
      "▁n°": 8047,
      "▁liebe": 8048,
      "▁junto": 8049,
      "ptembre": 8050,
      "unge": 8051,
      "▁représent": 8052,
      "▁Seiten": 8053,
      "mbre": 8054,
      "▁mantener": 8055,
      "st.": 8056,
      "▁American": 8057,
      "▁iP": 8058,
      "▁lif": 8059,
      "átic": 8060,
      "▁common": 8061,
      "▁them.": 8062,
      "ET": 8063,
      "-n": 8064,
      "▁Juni": 8065,
      "▁Mutter": 8066,
      "▁(I": 8067,
      "▁Vielleicht": 8068,
      "ruf": 8069,
      "▁pesar": 8070,
      "▁comprom": 8071,
      "rache": 8072,
      "▁exer": 8073,
      "▁caf": 8074,
      "usión": 8075,
      "▁chacun": 8076,
      "eda": 8077,
      "▁impres": 8078,
      "-An": 8079,
      "igr": 8080,
      "▁cy": 8081,
      "▁l'article": 8082,
      "▁stress": 8083,
      "yo": 8084,
      "hod": 8085,
      "âte": 8086,
      "▁behind": 8087,
      "▁debido": 8088,
      "atre": 8089,
      "amientos": 8090,
      "tral": 8091,
      "▁Ve": 8092,
      "hang": 8093,
      "unsch": 8094,
      "▁presidente": 8095,
      "▁vorher": 8096,
      "▁varias": 8097,
      "▁profesional": 8098,
      "son": 8099,
      "iques,": 8100,
      "ritten": 8101,
      "▁responsable": 8102,
      "▁profit": 8103,
      "ettes": 8104,
      "▁Kle": 8105,
      "▁Entre": 8106,
      "tional": 8107,
      "▁difícil": 8108,
      "▁commit": 8109,
      "idar": 8110,
      "appr": 8111,
      "▁sentido": 8112,
      "ise,": 8113,
      "-O": 8114,
      "▁mét": 8115,
      "ledge": 8116,
      "▁Schüler": 8117,
      "/o": 8118,
      "▁diciembre": 8119,
      "▁donné": 8120,
      "cole": 8121,
      "antes,": 8122,
      "▁limp": 8123,
      "▁quiere": 8124,
      "ktr": 8125,
      "lad": 8126,
      "▁mom": 8127,
      "▁último": 8128,
      "▁haciendo": 8129,
      "stead": 8130,
      "▁realmente": 8131,
      "▁laisse": 8132,
      "igkeiten": 8133,
      "▁independ": 8134,
      "▁freuen": 8135,
      "▁élément": 8136,
      "▁Ca": 8137,
      "▁led": 8138,
      "▁interven": 8139,
      "▁living": 8140,
      "▁amount": 8141,
      ".”": 8142,
      "bit": 8143,
      "▁emer": 8144,
      "▁Del": 8145,
      "▁encou": 8146,
      "body": 8147,
      "cord": 8148,
      "urope": 8149,
      "▁private": 8150,
      "▁Probleme": 8151,
      "▁septembre": 8152,
      "eno": 8153,
      "auen": 8154,
      "▁dado": 8155,
      "ury": 8156,
      "la,": 8157,
      "ube": 8158,
      "▁étant": 8159,
      "▁médic": 8160,
      "iba": 8161,
      "teile": 8162,
      "istic": 8163,
      "▁différents": 8164,
      "▁Kenn": 8165,
      "ajes": 8166,
      "annte": 8167,
      "▁command": 8168,
      "▁libert": 8169,
      "▁employ": 8170,
      "▁Januar": 8171,
      ",000": 8172,
      "▁Dieses": 8173,
      "▁déclar": 8174,
      "▁moyen": 8175,
      "▁bedeute": 8176,
      "bare": 8177,
      "▁redes": 8178,
      "▁cosa": 8179,
      "▁pratique": 8180,
      "▁mauvais": 8181,
      "ensive": 8182,
      "▁2000": 8183,
      "▁sport": 8184,
      "roit": 8185,
      "ra,": 8186,
      "walt": 8187,
      "▁sound": 8188,
      "▁l’a": 8189,
      "sweise": 8190,
      "▁qualif": 8191,
      "viembre": 8192,
      "▁United": 8193,
      "▁modo": 8194,
      "▁nar": 8195,
      "▁apar": 8196,
      "▁matière": 8197,
      "▁términ": 8198,
      "▁ba": 8199,
      "▁adel": 8200,
      "▁(L": 8201,
      "führt": 8202,
      "▁(19": 8203,
      "▁Are": 8204,
      "▁elimin": 8205,
      "▁busc": 8206,
      "▁parle": 8207,
      "-to": 8208,
      "▁caso,": 8209,
      "▁Zus": 8210,
      "▁skill": 8211,
      "▁deliver": 8212,
      "▁Stelle": 8213,
      "DF": 8214,
      "schnitt": 8215,
      "zos": 8216,
      "œur": 8217,
      "▁histoire": 8218,
      "▁Entscheidung": 8219,
      "▁acab": 8220,
      "▁mots": 8221,
      "▁bor": 8222,
      "▁œ": 8223,
      "mission": 8224,
      "▁Oder": 8225,
      "▁foot": 8226,
      "▁temps,": 8227,
      "▁join": 8228,
      "äufig": 8229,
      "▁mano": 8230,
      "minister": 8231,
      "ctiva": 8232,
      "▁transfer": 8233,
      "▁Mund": 8234,
      "▁Bitte": 8235,
      "atures": 8236,
      "baren": 8237,
      "▁plann": 8238,
      "▁palabras": 8239,
      "▁note": 8240,
      "▁Aunque": 8241,
      "▁194": 8242,
      "▁ep": 8243,
      "▁sagen,": 8244,
      "stadt": 8245,
      "▁alumn": 8246,
      "▁item": 8247,
      "▁sufr": 8248,
      "▁serious": 8249,
      "▁März": 8250,
      "-on": 8251,
      "ienen": 8252,
      "▁serán": 8253,
      "▁demasi": 8254,
      "▁faud": 8255,
      "▁souff": 8256,
      "óv": 8257,
      "▁tratamiento": 8258,
      "▁Got": 8259,
      "zer": 8260,
      "▁liste": 8261,
      "▁cinco": 8262,
      "▁e-": 8263,
      "▁pain": 8264,
      "▁aband": 8265,
      "ern.": 8266,
      "▁toll": 8267,
      "▁Einsatz": 8268,
      "enzen": 8269,
      "▁jeunes": 8270,
      "▁femmes": 8271,
      "UT": 8272,
      "▁ideal": 8273,
      "▁Dr": 8274,
      "ACI": 8275,
      "▁Weise": 8276,
      "▁Juli": 8277,
      "▁Zur": 8278,
      "▁fres": 8279,
      "▁feu": 8280,
      "▁matér": 8281,
      "▁financial": 8282,
      "▁choc": 8283,
      "▁B.": 8284,
      "igo": 8285,
      "bum": 8286,
      "gesamt": 8287,
      "▁électr": 8288,
      "▁fair": 8289,
      "▁passion": 8290,
      "▁visto": 8291,
      "▁novembre": 8292,
      "el.": 8293,
      "▁Komment": 8294,
      "ampo": 8295,
      "▁9.": 8296,
      "n,": 8297,
      "ivo": 8298,
      "▁among": 8299,
      "▁Start": 8300,
      "▁dog": 8301,
      "▁office": 8302,
      "ops": 8303,
      "▁Why": 8304,
      "▁luch": 8305,
      "▁aquellos": 8306,
      "ine.\n": 8307,
      "▁alcanz": 8308,
      "haft": 8309,
      "ción.\n": 8310,
      "▁pant": 8311,
      "▁cm": 8312,
      "▁QUE": 8313,
      "▁time.": 8314,
      "▁aujourd’hui": 8315,
      "▁marr": 8316,
      "▁vir": 8317,
      "▁Punk": 8318,
      "▁swe": 8319,
      "▁Neben": 8320,
      "▁While": 8321,
      "▁juego": 8322,
      "ance.\n": 8323,
      "▁account": 8324,
      "▁hizo": 8325,
      "▁vont": 8326,
      "stre": 8327,
      "▁save": 8328,
      "que,": 8329,
      "▁ayudar": 8330,
      "quir": 8331,
      "stellen": 8332,
      "▁acciones": 8333,
      "▁season": 8334,
      "▁política": 8335,
      "▁blanc": 8336,
      "fäh": 8337,
      "ól": 8338,
      "▁Ital": 8339,
      "▁relationship": 8340,
      "äum": 8341,
      "▁Every": 8342,
      "▁daran": 8343,
      "▁Ganz": 8344,
      "▁coraz": 8345,
      "▁field": 8346,
      "-)\n": 8347,
      "▁centr": 8348,
      "alter": 8349,
      "▁software": 8350,
      "▁Rich": 8351,
      "▁Satz": 8352,
      "ader": 8353,
      "ichtlich": 8354,
      "IV": 8355,
      "AP": 8356,
      "plan": 8357,
      "▁mode": 8358,
      "▁méde": 8359,
      "▁́": 8360,
      "▁glau": 8361,
      "▁mucha": 8362,
      "▁Nr.": 8363,
      "▁fantas": 8364,
      "▁development": 8365,
      "▁clean": 8366,
      "▁fourn": 8367,
      "▁box": 8368,
      "▁World": 8369,
      "▁tatsächlich": 8370,
      "▁enseñ": 8371,
      "24": 8372,
      "▁serie": 8373,
      "▁tenido": 8374,
      "gestellt": 8375,
      "▁subst": 8376,
      "▁bás": 8377,
      "▁fecha": 8378,
      "▁Familien": 8379,
      "▁único": 8380,
      "▁respet": 8381,
      "▁diagn": 8382,
      "handlung": 8383,
      "▁contemp": 8384,
      "▁mindestens": 8385,
      "▁länger": 8386,
      "▁conclus": 8387,
      "▁Auftrag": 8388,
      "▁stock": 8389,
      "▁endlich": 8390,
      "▁ciert": 8391,
      "▁erfol": 8392,
      "▁concl": 8393,
      "▁regel": 8394,
      "▁obtener": 8395,
      "▁Prem": 8396,
      "▁himself": 8397,
      "▁atte": 8398,
      "▁So,": 8399,
      "▁approach": 8400,
      "▁éx": 8401,
      "▁wich": 8402,
      "▁IT": 8403,
      "▁conna": 8404,
      "tags": 8405,
      "imen": 8406,
      "▁upd": 8407,
      "▁Work": 8408,
      "▁Fest": 8409,
      "frage": 8410,
      "▁notwend": 8411,
      "▁puedan": 8412,
      "▁Engl": 8413,
      "▁entra": 8414,
      "▁depart": 8415,
      "äischen": 8416,
      "icion": 8417,
      "▁Kommun": 8418,
      "inte": 8419,
      "▁door": 8420,
      "▁employe": 8421,
      "▁objectif": 8422,
      "▁said.": 8423,
      "▁Inf": 8424,
      "uk": 8425,
      "▁Liefer": 8426,
      "▁provin": 8427,
      "▁cerca": 8428,
      "▁complex": 8429,
      "▁español": 8430,
      "chten": 8431,
      "ité.\n": 8432,
      "▁Fort": 8433,
      "▁cierto": 8434,
      "imientos": 8435,
      "affe": 8436,
      "▁Gefühl": 8437,
      "▁riesgo": 8438,
      "avía": 8439,
      "on.\n": 8440,
      "chen,": 8441,
      "▁Meinung": 8442,
      "igent": 8443,
      "▁aver": 8444,
      "▁parfait": 8445,
      "contre": 8446,
      "cte": 8447,
      "▁esté": 8448,
      "▁efectos": 8449,
      "▁Wirk": 8450,
      "▁gratuit": 8451,
      "▁salle": 8452,
      "omo": 8453,
      "▁click": 8454,
      "▁coin": 8455,
      "▁laquelle": 8456,
      "▁jun": 8457,
      "▁issues": 8458,
      "En": 8459,
      "▁organización": 8460,
      "äche": 8461,
      "▁montr": 8462,
      "bile": 8463,
      "▁esas": 8464,
      "▁travel": 8465,
      "▁doll": 8466,
      "teilung": 8467,
      "▁construction": 8468,
      "▁repar": 8469,
      "end,": 8470,
      "▁Danke": 8471,
      "ro,": 8472,
      "▁required": 8473,
      "▁machen,": 8474,
      "▁atr": 8475,
      "▁truc": 8476,
      "▁Weihn": 8477,
      "▁contenido": 8478,
      "▁Unterstütz": 8479,
      "▁auto": 8480,
      "▁réun": 8481,
      "werb": 8482,
      "▁insbesondere": 8483,
      "▁aus.": 8484,
      "▁producción": 8485,
      "leurs": 8486,
      "▁alto": 8487,
      "▁interior": 8488,
      "▁edit": 8489,
      "▁stellt": 8490,
      "▁grad": 8491,
      "▁step": 8492,
      "▁España": 8493,
      "▁By": 8494,
      "▁quieres": 8495,
      "▁hous": 8496,
      "▁weiteren": 8497,
      "▁oportunidad": 8498,
      "tiene": 8499,
      "▁manag": 8500,
      "fortable": 8501,
      "▁respond": 8502,
      "▁intel": 8503,
      "▁droits": 8504,
      "▁d'ex": 8505,
      "▁implement": 8506,
      "ancias": 8507,
      "▁d'avoir": 8508,
      "meld": 8509,
      "▁bank": 8510,
      "▁siè": 8511,
      "▁puntos": 8512,
      "ique.\n": 8513,
      "▁demander": 8514,
      "▁36": 8515,
      "▁pier": 8516,
      "▁journal": 8517,
      "▁usuarios": 8518,
      "▁gol": 8519,
      "adora": 8520,
      "▁population": 8521,
      "▁perspe": 8522,
      "▁concep": 8523,
      "70": 8524,
      "abord": 8525,
      "▁AR": 8526,
      "enez": 8527,
      "EM": 8528,
      "▁Sonn": 8529,
      "▁further": 8530,
      "▁Soll": 8531,
      "▁Pass": 8532,
      "anco": 8533,
      "▁usually": 8534,
      "▁jedes": 8535,
      "▁herman": 8536,
      "90": 8537,
      "▁propre": 8538,
      "▁percent": 8539,
      "olo": 8540,
      "▁rap": 8541,
      "▁Arch": 8542,
      "cida": 8543,
      "▁alta": 8544,
      "▁Eink": 8545,
      "▁Warum": 8546,
      "▁cart": 8547,
      "▁unver": 8548,
      "▁bald": 8549,
      "▁)": 8550,
      "▁More": 8551,
      "remos": 8552,
      "wegen": 8553,
      "wür": 8554,
      "▁reconn": 8555,
      "▁parten": 8556,
      "▁mother": 8557,
      "▁référ": 8558,
      ":30": 8559,
      "▁adult": 8560,
      "▁building": 8561,
      "▁zon": 8562,
      "▁répondre": 8563,
      "▁Os": 8564,
      "ity.": 8565,
      "▁mehrere": 8566,
      "▁0,": 8567,
      "▁thinking": 8568,
      "▁oubl": 8569,
      "▁profund": 8570,
      "15": 8571,
      "▁importantes": 8572,
      "▁estudio": 8573,
      "▁amen": 8574,
      "▁übr": 8575,
      "▁voyage": 8576,
      "▁¿P": 8577,
      "IR": 8578,
      "▁excellent": 8579,
      "ance.": 8580,
      "ieu": 8581,
      "▁decision": 8582,
      "▁proch": 8583,
      "▁ases": 8584,
      "▁Forsch": 8585,
      "▁themsel": 8586,
      "▁mostr": 8587,
      "EC": 8588,
      "▁Hause": 8589,
      "▁Ans": 8590,
      "▁concept": 8591,
      "▁Schutz": 8592,
      "ux,": 8593,
      "ago": 8594,
      "at.": 8595,
      "etter": 8596,
      "icamente": 8597,
      "▁Industr": 8598,
      "▁Einzel": 8599,
      "▁plazo": 8600,
      "▁confir": 8601,
      "▁habe,": 8602,
      "ael": 8603,
      "▁Vis": 8604,
      "▁Quel": 8605,
      "▁195": 8606,
      "IG": 8607,
      "▁stellen": 8608,
      "ías,": 8609,
      "énd": 8610,
      "▁ocurr": 8611,
      "▁queda": 8612,
      "▁Ja,": 8613,
      "▁trabajar": 8614,
      "▁visite": 8615,
      "▁PC": 8616,
      "▁Ap": 8617,
      "▁présente": 8618,
      "haps": 8619,
      "▁Sor": 8620,
      "▁acompañ": 8621,
      "▁Moment": 8622,
      "isik": 8623,
      "?”\n": 8624,
      "▁\"O": 8625,
      "rog": 8626,
      "▁créer": 8627,
      "...)": 8628,
      "erstell": 8629,
      "▁hech": 8630,
      "▁deberá": 8631,
      "▁D'": 8632,
      "▁carte": 8633,
      "▁Sti": 8634,
      "▁hacerlo": 8635,
      "ieur": 8636,
      "onnes": 8637,
      "eler": 8638,
      "iot": 8639,
      "▁felt": 8640,
      "▁Mir": 8641,
      "äg": 8642,
      "▁invit": 8643,
      "isch,": 8644,
      "encia,": 8645,
      "▁Dat": 8646,
      "▁non-": 8647,
      "▁Afr": 8648,
      "▁rév": 8649,
      "▁PAR": 8650,
      "▁Star": 8651,
      "▁ziem": 8652,
      "▁surpris": 8653,
      "▁étr": 8654,
      "▁Pati": 8655,
      "▁expect": 8656,
      "▁peur": 8657,
      "▁https://": 8658,
      "▁kids": 8659,
      "est,": 8660,
      "ois": 8661,
      "dom": 8662,
      "ners": 8663,
      "▁stor": 8664,
      "adamente": 8665,
      "▁plante": 8666,
      "▁ejemplo,": 8667,
      "▁qu'un": 8668,
      "▁posibilidad": 8669,
      "▁definitely": 8670,
      "▁estudi": 8671,
      "▁(2)": 8672,
      "▁Interesse": 8673,
      "▁salir": 8674,
      "endes": 8675,
      "jas": 8676,
      "▁ähn": 8677,
      "s)": 8678,
      "▁chois": 8679,
      "h.": 8680,
      "▁grave": 8681,
      "formations": 8682,
      "▁ready": 8683,
      "ismo,": 8684,
      "ederal": 8685,
      "▁claro": 8686,
      "▁subs": 8687,
      "▁bod": 8688,
      "▁types": 8689,
      "▁Jesus": 8690,
      "iva": 8691,
      "▁method": 8692,
      "▁32": 8693,
      "▁guess": 8694,
      "▁conseil": 8695,
      "▁celebr": 8696,
      "fuer": 8697,
      "▁stark": 8698,
      "▁rid": 8699,
      "▁resto": 8700,
      "▁Bay": 8701,
      "▁effet,": 8702,
      "halts": 8703,
      "▁Mac": 8704,
      "▁Unsere": 8705,
      "▁gee": 8706,
      "▁piel": 8707,
      "▁Amaz": 8708,
      "▁mental": 8709,
      "▁gemeinsam": 8710,
      "wohn": 8711,
      "▁Wes": 8712,
      "▁Then": 8713,
      "▁obv": 8714,
      "onse": 8715,
      "rup": 8716,
      "▁Sams": 8717,
      "▁begr": 8718,
      "▁att": 8719,
      "find": 8720,
      "▁erzähl": 8721,
      "’était": 8722,
      "▁maybe": 8723,
      "álisis": 8724,
      "▁hoff": 8725,
      "▁Datenschutz": 8726,
      "▁proper": 8727,
      "verständ": 8728,
      "**": 8729,
      "▁Än": 8730,
      "ampf": 8731,
      "alten": 8732,
      "▁Schule": 8733,
      "▁rê": 8734,
      "▁clientes": 8735,
      "ueblo": 8736,
      "▁justif": 8737,
      "▁Constitu": 8738,
      "▁Gespr": 8739,
      "oso": 8740,
      "▁période": 8741,
      "▁fand": 8742,
      "▁age": 8743,
      "▁aug": 8744,
      "izado": 8745,
      "▁takes": 8746,
      "▁arrive": 8747,
      "▁ways": 8748,
      "ING": 8749,
      "▁sigue": 8750,
      "▁Kindern": 8751,
      "eras": 8752,
      "frei": 8753,
      "▁enfant": 8754,
      "▁Ober": 8755,
      ".-": 8756,
      "lei": 8757,
      "▁Werk": 8758,
      "TION": 8759,
      "tler": 8760,
      "sto": 8761,
      "▁director": 8762,
      "'d": 8763,
      "▁lect": 8764,
      "▁Produkte": 8765,
      "▁Antwort": 8766,
      "▁cuis": 8767,
      "▁ersch": 8768,
      "▁court": 8769,
      "▁Schn": 8770,
      "▁Spr": 8771,
      "▁contacto": 8772,
      "ölker": 8773,
      "iven": 8774,
      "aisse": 8775,
      "lich.": 8776,
      "▁Kunst": 8777,
      "▁progress": 8778,
      "druck": 8779,
      "▁Exper": 8780,
      "▁Sc": 8781,
      "▁versuch": 8782,
      "ítulo": 8783,
      "uellement": 8784,
      "cular": 8785,
      "▁cole": 8786,
      "▁↑": 8787,
      "▁Madr": 8788,
      "▁phone": 8789,
      "▁ninguna": 8790,
      "▁dorm": 8791,
      "▁Home": 8792,
      "▁anges": 8793,
      "▁kom": 8794,
      "asing": 8795,
      "fallen": 8796,
      "▁needed": 8797,
      "▁Lage": 8798,
      "▁nouveaux": 8799,
      "▁turned": 8800,
      "zentr": 8801,
      "“.": 8802,
      "▁bil": 8803,
      "mäßig": 8804,
      "▁!!": 8805,
      "aces": 8806,
      "▁t’": 8807,
      "▁proprié": 8808,
      "▁devrait": 8809,
      "ica.\n": 8810,
      "▁Dinge": 8811,
      "▁detall": 8812,
      "▁jol": 8813,
      "▁Disk": 8814,
      "5%": 8815,
      "au,": 8816,
      "▁Sub": 8817,
      "▁personnel": 8818,
      "▁secur": 8819,
      "ah,": 8820,
      "ate,": 8821,
      "arf": 8822,
      "▁haven": 8823,
      "▁verk": 8824,
      "den,": 8825,
      "▁Nacht": 8826,
      "zeichnet": 8827,
      "▁tarde": 8828,
      "ans,": 8829,
      "▁....": 8830,
      "▁Enfin": 8831,
      "attend": 8832,
      "▁parent": 8833,
      "▁effort": 8834,
      "▁octobre": 8835,
      "▁segundo": 8836,
      "▁terror": 8837,
      "▁Ern": 8838,
      "▁ern": 8839,
      "mientos": 8840,
      "-,": 8841,
      "▁réc": 8842,
      "mis": 8843,
      "▁SP": 8844,
      "▁hombres": 8845,
      "▁“H": 8846,
      "▁activités": 8847,
      "▁podrán": 8848,
      "▁wonderful": 8849,
      "▁tellement": 8850,
      "▁listen": 8851,
      "▁ak": 8852,
      "▁Cour": 8853,
      "▁Programm": 8854,
      "▁Conseil": 8855,
      "▁Außerdem": 8856,
      "rer": 8857,
      "IA": 8858,
      "▁sorte": 8859,
      "▁saf": 8860,
      "12": 8861,
      "▁interesting": 8862,
      "▁Nähe": 8863,
      "▁frei": 8864,
      "▁empfehl": 8865,
      "estaur": 8866,
      "-Z": 8867,
      "mark": 8868,
      "▁völl": 8869,
      "▁decir,": 8870,
      "clam": 8871,
      "▁usar": 8872,
      "▁chap": 8873,
      "zy": 8874,
      "▁2006": 8875,
      "onde": 8876,
      "▁D’": 8877,
      "aving": 8878,
      "▁propio": 8879,
      "▁joue": 8880,
      "▁démar": 8881,
      "ally,": 8882,
      "▁Aqu": 8883,
      "mage": 8884,
      "▁encant": 8885,
      "▁formación": 8886,
      "▁disfrutar": 8887,
      "▁certainly": 8888,
      "-je": 8889,
      "ossible": 8890,
      "▁distin": 8891,
      "▁“C": 8892,
      "▁Air": 8893,
      "▁aren": 8894,
      "▁frais": 8895,
      "▁Personal": 8896,
      "▁Tom": 8897,
      "▁words": 8898,
      "▁aplic": 8899,
      "▁dois": 8900,
      "▁estás": 8901,
      "▁propia": 8902,
      "▁gouvernement": 8903,
      "▁Kraft": 8904,
      "setzung": 8905,
      "ives": 8906,
      "▁“D": 8907,
      "▁extens": 8908,
      "▁finanz": 8909,
      "▁Paul": 8910,
      "▁them,": 8911,
      "▁gast": 8912,
      "▁outside": 8913,
      "▁(a": 8914,
      "l.": 8915,
      "head": 8916,
      "▁pros": 8917,
      "▁trouvé": 8918,
      "▁esti": 8919,
      "▁ocup": 8920,
      "▁sud": 8921,
      "▁mail": 8922,
      "▁bag": 8923,
      "ations,": 8924,
      "▁(5": 8925,
      "▁lista": 8926,
      "▁(in": 8927,
      "▁tried": 8928,
      "▁Aller": 8929,
      "▁ata": 8930,
      "▁cell": 8931,
      "éten": 8932,
      "ique.": 8933,
      "íd": 8934,
      "▁luz": 8935,
      "ía.\n": 8936,
      "iga": 8937,
      "▁Design": 8938,
      "irement": 8939,
      "ig.": 8940,
      "▁black": 8941,
      "▁Führ": 8942,
      "▁4,": 8943,
      "▁Verm": 8944,
      "ding": 8945,
      "▁match": 8946,
      "▁pul": 8947,
      "gef": 8948,
      "▁función": 8949,
      "▁Ahora": 8950,
      "▁l'im": 8951,
      "immt": 8952,
      "▁ziemlich": 8953,
      "orted": 8954,
      "▁Verfügung": 8955,
      "▁diseñ": 8956,
      "▁presque": 8957,
      "▁sold": 8958,
      "▁traitement": 8959,
      "▁permis": 8960,
      "hof": 8961,
      "▁juin": 8962,
      "iemand": 8963,
      "cteur": 8964,
      "▁oppos": 8965,
      "▁heißt": 8966,
      "▁minutos": 8967,
      "▁pasa": 8968,
      "▁estrateg": 8969,
      "▁dirección": 8970,
      "▁Ord": 8971,
      "orie": 8972,
      "yr": 8973,
      "▁resultado": 8974,
      "▁auprès": 8975,
      "▁THE": 8976,
      "ple": 8977,
      "▁Educ": 8978,
      "▁retrouver": 8979,
      ".S.": 8980,
      "utilisation": 8981,
      "óven": 8982,
      "▁„A": 8983,
      "▁talking": 8984,
      "▁repe": 8985,
      "▁interpre": 8986,
      "-In": 8987,
      "▁miembros": 8988,
      "▁auf,": 8989,
      "gere": 8990,
      "aute": 8991,
      "▁woman": 8992,
      "▁tanto,": 8993,
      "ierungs": 8994,
      "▁comercial": 8995,
      "lungen": 8996,
      "▁octubre": 8997,
      "▁estruct": 8998,
      "irth": 8999,
      "▁folgenden": 9000,
      "ront": 9001,
      "ability": 9002,
      "▁entrada": 9003,
      "▁veh": 9004,
      "▁Vergleich": 9005,
      "▁interés": 9006,
      "▁saying": 9007,
      "▁méth": 9008,
      "▁feeling": 9009,
      "▁suel": 9010,
      "▁150": 9011,
      "klärung": 9012,
      "▁ráp": 9013,
      "▁vendre": 9014,
      "▁imagen": 9015,
      "▁running": 9016,
      "▁flex": 9017,
      "▁environment": 9018,
      "schließlich": 9019,
      "▁\"The": 9020,
      "isant": 9021,
      "▁brauch": 9022,
      "▁würden": 9023,
      "änden": 9024,
      "▁mère": 9025,
      "▁ofrece": 9026,
      "ner,": 9027,
      "▁gave": 9028,
      "▁credit": 9029,
      "▁propert": 9030,
      "▁vivre": 9031,
      "▁image": 9032,
      "▁souhaite": 9033,
      "▁là,": 9034,
      "▁mam": 9035,
      "ziel": 9036,
      "▁Pers": 9037,
      "▁absolute": 9038,
      "ura,": 9039,
      "▁soient": 9040,
      "▁medida": 9041,
      "▁Winter": 9042,
      "▁wid": 9043,
      "▁hop": 9044,
      "uestas": 9045,
      "emment": 9046,
      "▁professional": 9047,
      "▁specific": 9048,
      "▁trotzdem": 9049,
      "▁Viele": 9050,
      "entes,": 9051,
      "▁partes": 9052,
      "ämlich": 9053,
      "...)\n": 9054,
      "uestos": 9055,
      "▁requis": 9056,
      "auté": 9057,
      "▁challen": 9058,
      "▁alternativ": 9059,
      "nelle": 9060,
      "▁comerci": 9061,
      "▁essen": 9062,
      "▁actu": 9063,
      "▁comien": 9064,
      "oid": 9065,
      "enc": 9066,
      "▁proté": 9067,
      "oires": 9068,
      "▁noviembre": 9069,
      "▁recuper": 9070,
      "▁vor,": 9071,
      "▁Sil": 9072,
      "▁suced": 9073,
      "▁última": 9074,
      "mettre": 9075,
      "▁road": 9076,
      "▁machen.": 9077,
      "▁Früh": 9078,
      "▁l’im": 9079,
      "iesen": 9080,
      "▁verschiedene": 9081,
      "▁student": 9082,
      "▁wurde,": 9083,
      "▁spend": 9084,
      "▁chambre": 9085,
      "ales.": 9086,
      "▁PS": 9087,
      "ies.\n": 9088,
      "xis": 9089,
      "ard,": 9090,
      "ibility": 9091,
      "▁esfuer": 9092,
      "▁papel": 9093,
      "lez": 9094,
      "rechen": 9095,
      "▁s'il": 9096,
      "▁Berat": 9097,
      "▁camino": 9098,
      "öhn": 9099,
      "▁sleep": 9100,
      "iné": 9101,
      "▁ensemble": 9102,
      "ley": 9103,
      "▁analys": 9104,
      "▁vacances": 9105,
      "▁celebra": 9106,
      "ately": 9107,
      "ray": 9108,
      "▁zeigt": 9109,
      "CE": 9110,
      "▁jusqu’à": 9111,
      "▁miles": 9112,
      "ko": 9113,
      "22": 9114,
      "ueil": 9115,
      "▁kennen": 9116,
      "▁conséqu": 9117,
      "fen,": 9118,
      "▁Eur": 9119,
      "▁bord": 9120,
      "▁celles": 9121,
      "lege": 9122,
      "▁jusqu'à": 9123,
      "ts.\n": 9124,
      "▁experiment": 9125,
      "agra": 9126,
      "ce.": 9127,
      "▁resol": 9128,
      "▁manque": 9129,
      "▁elabor": 9130,
      "am,": 9131,
      "▁fire": 9132,
      "▁Hinter": 9133,
      "▁surve": 9134,
      "▁haute": 9135,
      "▁einges": 9136,
      "▁discover": 9137,
      "▁Situation": 9138,
      "▁proyectos": 9139,
      "▁scien": 9140,
      "▁aujourd'hui": 9141,
      "▁Det": 9142,
      "▁susp": 9143,
      "▁salari": 9144,
      "ente.\n": 9145,
      "▁necesidades": 9146,
      "IP": 9147,
      "▁gegeben": 9148,
      "▁33": 9149,
      "▁Medien": 9150,
      "▁concernant": 9151,
      "▁gebra": 9152,
      "▁annon": 9153,
      "▁tare": 9154,
      "▁disponibles": 9155,
      "halte": 9156,
      "▁products": 9157,
      "▁Gleich": 9158,
      "▁Tages": 9159,
      "▁achie": 9160,
      "▁bess": 9161,
      "▁tendr": 9162,
      "▁character": 9163,
      "▁primero": 9164,
      "occasion": 9165,
      "orial": 9166,
      "▁schöne": 9167,
      "put": 9168,
      "dio": 9169,
      "ritte": 9170,
      "icos,": 9171,
      "ining": 9172,
      "▁población": 9173,
      "▁Tur": 9174,
      "▁Institut": 9175,
      "▁ahor": 9176,
      "▁thé": 9177,
      "▁Jack": 9178,
      "ôtel": 9179,
      "▁commission": 9180,
      "▁Band": 9181,
      "▁Christi": 9182,
      "▁täglich": 9183,
      "▁futur": 9184,
      "ls": 9185,
      "ika": 9186,
      "▁valeur": 9187,
      "▁(N": 9188,
      "▁travaux": 9189,
      "-de": 9190,
      "▁works": 9191,
      "pero": 9192,
      "▁Even": 9193,
      "▁Neu": 9194,
      "▁Tor": 9195,
      "▁mars": 9196,
      "▁Heute": 9197,
      "▁Krit": 9198,
      "▁zahlreich": 9199,
      "▁instrument": 9200,
      "▁estim": 9201,
      "orig": 9202,
      "▁comprend": 9203,
      "▁tiempo,": 9204,
      "▁you.\n": 9205,
      "TO": 9206,
      "enses": 9207,
      "▁prove": 9208,
      "!\"\n": 9209,
      "▁Har": 9210,
      "▁personen": 9211,
      "▁ordin": 9212,
      "▁préf": 9213,
      "▁range": 9214,
      "▁abil": 9215,
      "▁“M": 9216,
      "hein": 9217,
      "ain,": 9218,
      "▁Sozial": 9219,
      "▁vivir": 9220,
      "▁ful": 9221,
      "ante.\n": 9222,
      "ri": 9223,
      "▁terme": 9224,
      "▁\"G": 9225,
      "▁aille": 9226,
      "▁entreprises": 9227,
      "▁Artículo": 9228,
      "▁suficiente": 9229,
      "▁places": 9230,
      "contra": 9231,
      "▁Mr.": 9232,
      "▁compartir": 9233,
      "▁ok": 9234,
      "▁firm": 9235,
      "▁West": 9236,
      "cut": 9237,
      "▁ça,": 9238,
      "▁inclu": 9239,
      "▁sale": 9240,
      "▁style": 9241,
      "statt": 9242,
      "▁CO": 9243,
      "▁ves": 9244,
      "unächst": 9245,
      "hunder": 9246,
      "▁amazing": 9247,
      "▁wunder": 9248,
      "erver": 9249,
      "▁Voraus": 9250,
      "▁cliente": 9251,
      "▁now,": 9252,
      "edes": 9253,
      "▁protección": 9254,
      "▁Gut": 9255,
      "aven": 9256,
      "▁précéd": 9257,
      "▁enfr": 9258,
      "▁allein": 9259,
      "▁aider": 9260,
      "▁Teilnehmer": 9261,
      "▁unbed": 9262,
      "▁sn": 9263,
      "▁eyes": 9264,
      "▁dessen": 9265,
      "eller": 9266,
      "us.": 9267,
      "sichtig": 9268,
      "isierung": 9269,
      "▁Krieg": 9270,
      "uh": 9271,
      "▁meas": 9272,
      "▁meilleur": 9273,
      "▁apoyo": 9274,
      "▁contract": 9275,
      "▁opportunity": 9276,
      "wel": 9277,
      "▁St.": 9278,
      "▁tenga": 9279,
      "▁utiliser": 9280,
      "▁PR": 9281,
      "▁relation": 9282,
      "dle": 9283,
      "ampoco": 9284,
      "▁Restaur": 9285,
      "▁audien": 9286,
      "allation": 9287,
      "▁course,": 9288,
      "▁aktiv": 9289,
      "▁I'd": 9290,
      "itäten": 9291,
      "▁an.\n": 9292,
      "▁crisis": 9293,
      "▁qu’un": 9294,
      "▁Luft": 9295,
      "▁razón": 9296,
      "▁is,": 9297,
      "tient": 9298,
      "▁rapidement": 9299,
      "▁habil": 9300,
      "▁cambios": 9301,
      "▁ahí": 9302,
      "▁Job": 9303,
      "reiben": 9304,
      "▁goes": 9305,
      "▁interested": 9306,
      "tile": 9307,
      "▁Bek": 9308,
      "▁recono": 9309,
      "▁jóven": 9310,
      "▁beispiel": 9311,
      "▁mai": 9312,
      "▁instead": 9313,
      "▁definitiv": 9314,
      "▁argument": 9315,
      "▁town": 9316,
      "ynam": 9317,
      "▁Windows": 9318,
      "▁eta": 9319,
      "▁bem": 9320,
      "▁Log": 9321,
      "▁topic": 9322,
      "▁einigen": 9323,
      "▁völlig": 9324,
      "▁Deutschen": 9325,
      "orme": 9326,
      "▁investigación": 9327,
      "▁père": 9328,
      "tenir": 9329,
      "ammlung": 9330,
      "estival": 9331,
      "ueba": 9332,
      "ons,": 9333,
      "▁Verantwort": 9334,
      "▁nicht.\n": 9335,
      "▁confirm": 9336,
      "▁découver": 9337,
      "ódig": 9338,
      "▁fla": 9339,
      "▁personenbezogen": 9340,
      "ép": 9341,
      "D\n": 9342,
      "▁décid": 9343,
      "▁alma": 9344,
      "▁Fo": 9345,
      "▁voix": 9346,
      "auft": 9347,
      "ällen": 9348,
      "▁Rem": 9349,
      "▁todavía": 9350,
      "za,": 9351,
      "▁pensar": 9352,
      "▁rent": 9353,
      "▁ps": 9354,
      "▁mut": 9355,
      "ktor": 9356,
      "▁father": 9357,
      "▁Gä": 9358,
      "itting": 9359,
      "▁Sache": 9360,
      "such": 9361,
      "▁appreci": 9362,
      "▁buscar": 9363,
      "▁verein": 9364,
      "ce.\n": 9365,
      "▁materia": 9366,
      "▁sowohl": 9367,
      "▁beant": 9368,
      "▁ejercicio": 9369,
      "▁anz": 9370,
      "halten,": 9371,
      "▁madre": 9372,
      "▁favorite": 9373,
      "istencia": 9374,
      "▁Todo": 9375,
      "aking": 9376,
      "organisation": 9377,
      "éfon": 9378,
      "▁obra": 9379,
      "▁complete": 9380,
      "▁Arm": 9381,
      "▁aire": 9382,
      "orden": 9383,
      "▁viens": 9384,
      "▁auch,": 9385,
      "▁septiembre": 9386,
      "üß": 9387,
      "▁aufgrund": 9388,
      "erte": 9389,
      "▁compéten": 9390,
      "unal": 9391,
      "▁glad": 9392,
      "▁Autor": 9393,
      "▁bekannt": 9394,
      "▁création": 9395,
      "▁bott": 9396,
      "ada.": 9397,
      "ii": 9398,
      "▁coordin": 9399,
      "▁lost": 9400,
      "▁besonder": 9401,
      "▁menor": 9402,
      "▁bless": 9403,
      "▁atten": 9404,
      "ctivo": 9405,
      "▁choose": 9406,
      "500": 9407,
      "mel": 9408,
      "▁explic": 9409,
      "▁techniques": 9410,
      "▁Oui,": 9411,
      "gun": 9412,
      "▁padres": 9413,
      "▁contrôle": 9414,
      "▁escu": 9415,
      "▁fait,": 9416,
      "▁surv": 9417,
      "▁Well,": 9418,
      "▁juillet": 9419,
      "êmes": 9420,
      "▁séjour": 9421,
      "▁Ol": 9422,
      "▁educa": 9423,
      "▁Muse": 9424,
      "▁Saint": 9425,
      "▁Good": 9426,
      "tégr": 9427,
      "▁bleiben": 9428,
      "▁volon": 9429,
      "▁remain": 9430,
      "äuft": 9431,
      "▁Out": 9432,
      "▁pueblo": 9433,
      "▁explain": 9434,
      "▁diseño": 9435,
      "▁internacional": 9436,
      "rück": 9437,
      "▁difficile": 9438,
      "▁China": 9439,
      "▁193": 9440,
      "▁exactly": 9441,
      "indruck": 9442,
      "’d": 9443,
      "▁Software": 9444,
      "▁selber": 9445,
      "▁doctor": 9446,
[...]
